11010
1111111111110010
1110
1111111111110011
101
1111111111110010
1010
11
10000
1111111111101101
1111111111101000
11000
1101
1111111111111001
1111111111101100
1111111111111001
1111111111110011
11
11
1111111111111111
110
11
1100
1111111111101110
100101
110110
1010
1111111111101011
1111111111101000
110
1111111111101111
1111111111110011
11000
1111111111101001
1111111111111011
1111111111111111
1111111111010000
1111111111100011
100001
1111111111110001
1111111111000100
1111111111101110
1111111110001101
1111111010110010
1111110001110111
1111111101000110
100101
100000001
100100101
100111
1
1110
0
1100
1
1111111111101011
1111111111111110
1100
1
1111111111110000
11110
1111111111101000
10111
1111111111101110
1111111111010011
1111111101110000
1111111011010100
1111111100111001
1111111100000100
1111111000111101
1111111000011100
100001101
10101
100010000
100000100
110011110
1000010010
110000111
10100000
1101111
1100110
1111111111100101
1111111111101111
1101
1111111111110101
1111111111111000
1001
1111111111001001
11010
1111111101111000
1111111110001101
1111111101110010
1111110111000100
1111110000001001
1111101111101000
1111101011011111
1111011100001100
1111101000101011
1111110101100011
1111111000110110
1111100101101000
1111101100011101
100101
111100100
1111111110110000
110010100
1101010110
101110000
1101011
1010
1111111111111101
1111111111110110
1111111111110000
1111111111100111
1111111111111111
1111111111100011
1
1111111110111110
1111111111000011
1111111101100010
1111110000010111
1111101101011110
1111101110011010
1111110011001000
1111100111100110
1111101100100111
1111101011001101
1111100101100001
1111110001101011
1111111010100101
1111101111010101
1111110111010011
1110100
1111111011111111
100010000
10011110100
1101100001
111010111
1111
110
1110
1111111111110101
1111111111010011
1111111110110100
1111111111000000
1111111111001100
1111110101111010
1111101001100110
1111101001010110
1111100100010011
1111101000100011
1111101010011101
1111101110000001
1110011
1111110011011000
1111111011111111
1111011110111111
1111110000001110
1111111010111111
1111111001101010
1111110110111100
1111111000101100
1111111110011100
11000101111
1110110101
101010100
1011011
100010
1111111111011011
110
0
1111111100110001
1111110011010011
1111101011011100
1111001111000011
1111011100111011
1111101000101001
1111100000011010
1111010111100011
1111100001000100
1111101011110001
1111010101100111
1111111101110011
1111111101110010
0
110110111
1111111100111101
11010
1000101000
1111111010110001
1111111111111001
10011100110
10000110000
11010101
11111
11100
11101
1111111101101110
1111111111110111
1111110011010110
1111101001010010
1111101001110000
1111011100101100
1111101001110000
1111011100000010
1111100111011011
1111101110111110
1111010110101101
1111011111110011
1111011111100000
1111101000100010
1111111111100010
10000011
1111101101001110
100100
101111110
10011000010
1101010
1100010110
101111111
1011101
1111110111111101
1111111110000101
1111111111101001
1100
1111111111101100
101
1111110100001011
1111111101101100
1011010111
10100001100
1111111110011001
1100010
11000010
1111110000011111
1111101001110111
1111101111100010
1111110011110000
1111110100000010
1111100010111111
1111101000000110
1111110101110011
111101100
1111111010001000
1111101110111100
101100
1001
1111111011011101
1000111
1111110111111011
1111111100101100
10
1
1111111111110001
1111111111001100
1111111101010100
11010001000
101100000001
111011110001
110001100100
111000010011
110011111111
1000001011010
1000100011100
1000001100110
111011100000
10100100011
10000111111
1111111001
1111111001011110
1111110101010001
1111111011010001
1111101010100111
1111111011010000
1111101100011011
1111101110010001
1111111111011000
1111111001101010
1111111101111011
10000
1111111111110010
1001
1111111011011010
1111111101000000
101110010100
1001000010010
1010001111010
1101000010101
1101110111000
1110000111111
1100101100000
1000000000011
1000000110001
101100100110
10111010001
10100000100
1111100010111011
1111111011001011
1111101101011010
11101000
1100011
1111111001101111
1111101001110010
1100000
100111010
1111111111011011
1111111111101100
1111111111111000
1111111111011110
11100
1111110011111000
1111111000110010
11111101010
111110101001
111100110000
1001110011001
1000000000100
111010011101
111100000101
1111010110
1111111101000000
10001011110
1110111110
10010111000
111001000
1111111100011010
1010111101
101000111
1111110011011111
1111111101011101
1111110001111001
1111111111100011
1111111010001100
1111110101101101
11001
11000
1101
110010
1111111111010101
1111110111000001
1001001101
11011010101
10101001000
100100000
1111111000110001
1111110111100011
1111100011101010
1111101110101011
1111100101001101
1111110000111011
1111101100111100
10110010111
101000100
1011000010
1111111110010111
1111101110000001
10001100
1010011101
110011100
11100010010
1111111110111001
1111110010110101
11000
11101
1111111111111000
101101
10101
1111110010110111
1001110110
1011000
10010
1111110000101101
1111110101010010
1111100111010001
1111000011011111
1111110010111011
1111110101101110
1111110100111101
1111111101111010
1011100110
110100001
111000011
1100000
100010111
10001101111
1111001001
11000010001
1111111001
100001111
1111110111101010
1111111110101100
10001
10000
100110
100111
1111110110001110
1111111110001111
1111111100101110
1111101111110110
1111011010101010
1111111011101010
1111110101000101
1111110101001011
1111111100101101
110001101
101100001
110100001
1111110110110110
1111110111010000
1000111111
1111110101001100
100111010
1111110101010101
1111111001111011
10111100011
1110001010
1001101011
1111111110011110
1111111010000110
1111111111101001
1111111111111010
1111111110111111
1111111111010100
1111110100101011
1111101010100100
1111101111010100
1111101001011101
1111111100011100
100100100110
110110011
1001010010
1110111110
101001110
1010110010
10000001110
1111101100100001
1111101110010011
1100011000
10101011
1000111111
1100000011
1111111001010111
11010100000
11111001
1111111100000001
1111111100110000
1111110101110010
1111111111101010
1111111111100110
1111111101111010
1111111100000100
1111101111010001
1111011010100010
1111101110101100
1111110110101001
1111111011111011
11010000011
111100101
1100100000
11010010101
1010101110
111110010
1111110111001000
110001000
1100111
1111110000011100
1111111010000000
10100111
101101
1111111000111101
1111011110
1111111111000100
1111110110010010
1111111101010010
1111110111111000
1111111110110000
1111111111111100
10010
1111111011010111
1111101001111111
1111100010000101
1111111001100101
1111111010100001
111110111
1111111000100010
11001001110
10111000010
101011110
101100011
11110100100
1111111101011010
1111111000000011
1111101101110001
100110
1110100101
1001101001
1110110111
1010001
1000100
100001111
1111110110111110
1111110000101000
1111111001010000
1111111110010010
1
1111111111111000
1111111110010101
1111100110000100
1111111011001111
1111110101111001
1111100011000000
1111111011111000
1111111000000101
1111110001010100
1111111111110010
11101
1110101
1111110110101010
1010110110
1111111111011111
1111111110011100
1001100111
11010100
100010110
1111101111111011
1111101110000111
1111111001011101
1011100100
1111110101000001
1111101101101001
1111111100110100
1111111111011000
1011
1111111111110000
11011011
1111110011111100
10001010
10000001010
101111
1111110110110110
1110011111
1000010010
1111111100001010
10101001101
1111110010101011
1111100101001001
110111
1111101111000011
1000011100
1111110001111011
1111110000000100
1001000
1111111100111100
1111110000110110
101001001
1111111101101001
1111111001111110
1111110111001010
1111111101100111
1000
10000
1111111111111110
10000110
1111110001101110
10110100
10011100100
1111111101111100
11001010
10000100110
1111111111101111
110100011
1111111001001111
1111111111111000
101011110
1111111111001100
1111110101011110
11001011
1100110111
1111111010000000
1111011111
100100001
1111110000100001
1111101101101011
1111110111011110
1111111100001111
1111111010111010
1111111111000011
1111111111111001
1111111111110011
1111111111100111
1111111100110010
1111110011001000
1111111000101001
100010101
1111111010001110
1111110000011100
10001010001
10001110001
111000000
10001011000
110011001
1111111000101001
10001110101
1111111011
1111110011011100
1111101011000110
100000001
1111111000100100
100011001
1111111010101011
1111110111101000
1111101110110001
1111110111011011
1111110110111111
1111111110100011
1111111111111111
1111111111101110
10110
1111111110101000
1111111010110010
1111111001100111
100110010
1100010111
1111101101100111
1111111111001110
11
1111111111110001
110001100
1111111111110001
1111111110101010
10011111
1111111001100001
10011111000
1111111111111110
10000000001
1111111001011011
1111111000000010
10011111
100010
1111111010101101
1111110100101001
1111111110000101
1111111111001111
11
1001
1101
1111111111111001
1111111100001000
1111111111100110
1111111011000011
10011001010
110011100
10110100000
100010101
10000100000
1111111
10111110010
1111111011001001
10011010101
1101011000
111101011
1011100010
10101110001
1101000111
101110
1111111000111001
1111111110101010
100011001
1111111101011001
1111111111100111
1111111111110010
10
1100
1010
100
1111111010001101
1111110110000110
1111111001010011
1111110101001101
1111110111010111
1111101100001111
1111111101000011
1111111001010000
1111111000010111
10010001
1111101010000101
1111111001101101
1101011100
110111101
1111101011000011
110001010
1111001001
111110010
1111110100101111
111010111
1100010100
1111111111100101
11
1001
11111
1111111111100010
1111111111110110
1110
1000
1111111011001000
1111111100011110
10100001
11110011
1111111011111001
1111110001110010
1111011111001100
1111110000110101
1111101110100000
1111110010111101
1111111011000101
11100110
1111111000011110
1111111000111000
11101111
101000100
1000001001
101110011
10011101
101100100
0
1111111111111001
10
1111111111110111
110010
1111111111111011
1010
111
1110000
1110110
10111000
10111000
1111110111101101
1111101111000001
1111100111001011
1111110011110000
1111110111010110
1111111010111100
1111111111010011
1011001
1111110001110000
1111110110110001
110111
1111111111011000
1111111111110111
1111111111001110
1111111110111011
1111111111100000
1111111111110111
10101
100
1111111111110011
1001
1111111111110101
1111111111100011
1111111111111001
1010
0
110011
1111111111111001
1111111111111100
101110
111110
1000100
10010
1111111111110100
1111111111111100
1111111111111010
1111111000011011
1111111101111001
10000
1111111111110100
10100
11011
1111111111111111
1111
1111111111110011
1111111111110001
100100
1111111111110101
