1010
1111111111101110
1111111111111001
1111111111111111
1111111111110100
1111111111100011
10011
1100
1111111111100000
1000
11
11000
1100
10001
1111111111111011
1001
1010
1011
1111111111110011
1111111110111110
1111111111111110
1111111111101101
10
1111111111101100
10111
111
1111111111101111
1111111111100110
101
1111111111010100
11
11000
11
100110
11110
1000
1111111111110111
1111111111100100
1111111111010111
1011100
10000111
1011011
11
100001100
1011001000
101101111
1111111111110110
1111111111000100
1111111110101111
1111111111101001
1111111111101011
1000
1111111111111111
1111111111100011
1111111111101000
101
1111111111101101
1111111111111010
1111111111111011
1001
1111111111101010
1111111111110000
1111111110000001
1111111101000001
1111111011000001
1111111000111100
1111111001010100
1111110110110100
1111111001011110
1111110001101010
1111110001000110
1111110111001111
1111111110101101
1111111100100111
1111111011011011
1111111010000101
1111111000011110
1111111011101000
1111111111110110
1111111111011100
1111111111011001
11001
1111111111111100
11111
10101
1111111111110010
1111111111111111
101100
1111111111110101
100011000
1111111110001000
1111111100010101
11000
1111110100011000
1111111111011001
1000101100
10011101100
1111111100000100
1111110101010110
1111111001111111
1111110111010001
1111110111001001
10011000
1111111110000101
1111111010001101
1111110000100011
1111110011110010
10111110
100011100
1100100
101010
1111111111101101
10011
10000
1111111111110011
111
10110
1111111110111001
1001100
1111111101100000
11011001
101001101
10101101
10100110001
100010110
1111110110101111
1111111001000100
101000010
1110011
1111111101001101
100000010
10001010
1100010
1111111000111100
1111110100011011
1111101101011001
1111111000110001
101001
11010
1111111111101101
1111111111110111
110
1111111111110101
10011001
101011
1011110000
1111100001
1001110
1111110101101110
1111110101000101
1111100011001100
1111111111100010
1111111110001101
1001001111
11000111
1001011110
1111100100101010
1111011011011111
1111101010111010
1111100000011011
1111110010011110
1111101111111001
1111110111010101
1111100101001110
1111101111010010
1111111101010010
1111111111001111
1111111111101110
1000
1111111111110010
100100
111001011
1110101
100001000
1010100101
1111110000000110
1111110010000111
1111110111000010
100001101
11100010010
1111101100001001
1111111001101110
1111101111000100
1111101100000110
1111111111001001
1101011110
10011000010
110011111
1100101001
1111100001
1111111111110101
1111011100111001
1111101101011010
11100110
1111111110110110
11000
1111111111111101
101110
1010100
1001110011
1111110110011110
1111110010001100
1111111110010101
1111110111111100
1111110111011100
1001011100
11010011101
1111110110101111
10000100101
11000100
1100001010
10101000100
1111110100
101101001110
11100011010
10010100101
10101101100
10001011110
1111110010111001
1111110111101100
1111101011001111
1111101010101001
1111111011001001
11101
1001
100011
1111111100100110
11011110
1
1000100000
11010001110
10000100100
100000111000
11001011000
1011010101
110110010
11010101101
1010010010
1111110010111001
10010010011
100101110000
101111101
1000110110
1011010100
110100100
111101000
1111111001011101
101000110
1111101000000100
1111011101111001
1111111010010011
1111111111111000
101
1100010
1111111100110111
1011010111
1010011000
10110111011
11110101100
11111100100
1100101101
1111111000101111
11100011001
11011101001
101011110011
11100010111
11110010010
11010111011
1111111111000110
1001100110
1111110010111111
1111101111110011
101001010
1111101101000001
1111111110011110
1111111010101111
110000
1111110111110100
1111111110100111
1111111111111000
1111111111110111
1000011
11000101
10110001100
1010010001
1111111111101000
1100011010
1111111100010111
1111111111111100
10100010010
1101111001
10100010111
1110000110
110101001100
1000010001100
10111111000
100000101000
1111101111011100
10111100
1111110110101011
10001000110
10010100001
11000110010
10100000101
1000000110
1001011
10110101
1011001
1011
11010
10101011100
11010101010
10111110111
111100101
10010010000
10001010
100000101010
1010110
10011100111
101100010011
1111111100000101
101101011100
1001111110010
11000110110
1111110101001010
1100101
10000101010
10110100110
100000100000
10001100010
11101010101
10001110011
11010001110
100111001
101000100
10001101
1111111111110110
1111111111100000
1000100011
11010001100
100011001011
1110111000
10000010010
100000010
1111111111100111
1111111000000001
1111111010111011
1111100110000001
1111011001011010
1111110111100010
11110100110
1111110000000010
111000001
1111010010
11101001011
1110100
10000001001
1011000100
11101110111
100000001000
1000101100
1001001010
1000001110
10100111
101
1100
11000101
10011010010
100111111000
11110101
1001100110
1111101011001001
110101111
1111100101111101
1111100010111010
1111110100101111
1111100111111101
100111011
1111111010110000
1000001101
10111010010
1111110010110111
1111111110111111
1111110010100010
11011111
1101111011
100110110
1001001010
11111110
10100010
1001111
1111111111110000
1
10100
10001101
111111110
1111111010001110
1111011111000010
1111111101011101
1111100011100110
1111110001001011
1111101110110111
1111101111001000
1111100001011100
1111110000100010
1111111101010000
1111101001010100
1111110101100111
1111111000101011
1111111010000101
10000000011
1111101000110010
1101111010
101010001
1111111110000010
1110001100
11011011
1111111010010100
1111111111100110
1111111111001011
1111111111100110
110
1111111110010010
1111110101001000
1111101001110101
1111111000010001
1111111101001100
1111111001010010
1111110101110011
1111100111001011
11100111
1111111011100011
1111111100101100
1111110101001010
1111100101011001
1111101110001111
1111100011000101
10100001000
10011011100
11111101100
10001110001
1101111110
110110111
1111111101010000
1010111000
1111101111101100
1111110101001010
1111111111011011
111
11110
1010
1111110110010111
1000011111
1111000
1111110100111001
1111110011001111
10100010111
10100011101
100010101
1111111010111000
1111010110000100
1111011010010101
1111010011100010
1111011000110100
1111111100101011
101100001
1111111101001011
101101111
1111101100
1111110010111101
1111111101011110
1111110100010000
1111111111100011
1111101001000010
1111111011000000
11
1111111111110110
10110
1111111101010000
1111111101000011
1111111111110010
1111110010011111
110001110
1111111010111100
1101110111
110000001
1000000110
1111110101111101
11111001
1111100111010000
1111100000001100
1111110000000100
1111011101011000
1111111111101100
1111110001101110
1010000110
1111101100001101
1111110100001100
1111111111000110
1111101010111000
1111111100001101
1111111000011101
1111111011100011
1111111111011101
11
1100
10000001
1111110111011001
1111110101011000
1100011
1101111101
1111110100101011
100011000110
1111111010111101
1110100010
10100010
1111011111001101
1111101000110011
1111010111000101
110000010
1111100001101011
1111111101010000
100111001
1111111110000110
1111101111000111
1111111010100111
11110001011
1111011101010111
1111100010111011
1111101111000110
1111111111010010
1111111111000111
1101
1111111111101010
1111111111010110
1111110001010111
1010100
11100011
1111111010001110
1111111111100001
1110101100
10010110011
1001110
1111101010000001
11011010001
1111101111111101
1111100011111001
1111100010001011
1111100010111100
110101011
1111111101000110
1110110000
1111101101011011
1111111010110011
10010101
1111100010100100
1111101110010011
1111110001110010
1111111010100110
1111111111101010
1111111111110110
100
1111111011010011
1111110110101011
1000111000
11001100000
10000000
1111110011000110
1111111111101011
1111111101110111
1111011001010001
1111101100100101
1111100110101111
10101000011
101101110
1111100101111010
1111101110011010
111011011
1111111011000110
1100001110
1111100111101100
1111101101011001
1111110111100011
1111110100001000
1111110110011101
1111111101101011
1111111101101000
10000
1000
10001
1111111100001111
1111111010001011
1111110111011001
11010011
11100010011
1110010100
1000101001
1111101111101010
1111110110110000
1111000010
10100110000
1111110100001100
1111100100010000
1111110011001000
1111110101111101
1111010101100011
1111110110000101
1111110101011100
1111101111100010
1111110000110011
1111101001110110
1111010110100010
1111101111111111
1111110011000110
1001100
11
111
1111111111111111
1111111010001110
1111111000111110
1111110101101011
1111110101001010
110010101
1010100
1111000101
1110101000
1111111110111110
1111101010101011
10100000
1111111101001001
111110
110100101
10011010000
1111110110001010
1111101100000000
1111101011101011
1111100101111111
1111101001100100
1111110100010011
1111111101101001
10101000
1111111100001010
1111111111110111
10010
1111111111110110
1101
1111111111111111
1100100
11101010
11000101
10010000000
110111001
100000
1111110010011001
1111110011110100
1111110011001111
1101000101
1111111010000011
1111101110101001
1011111011
1111110111011101
1111111001001001
1111101001100000
1111011111110001
1111011101110110
1111101001000010
1111111000110010
1111111001111011
1010110111
1111111011000001
1111111111011111
1111111111011010
100
1111111111110100
1111111111011101
110111101
1111100000
10010010010
11110000110
100110111111
11001000110
110000
10001100011
1111100111101111
1111111111110100
10010011001
1101010
101101100
1111100100000010
11100000001
1111100011011100
1111101110010101
10111001
1111110101000110
1111110101010000
1111111110110000
1111110101101010
1111110000111111
1111111101010100
10011
1111111111110001
1111111111011100
1011
101101
110000110
1110011111
1011011001
10110001000
11100000100
100101110110
1111111110
101000011001
101100000001
10100010111
100011011110
1000011000
1111001011
10100101110
11000011110
110111011010
100010111011
10001000101
111111010
100110101
1000111
1111111101011011
1111111101011111
1111111111111110
11111
1111111111101111
1111111111111101
10
1100001
1001110100
1101000101
10011111111
10100100110
100000001011
101100101100
100011101000
11010101101
110011000011
111111110010
101111001011
110000000011
100010010000
100100111100
100100000100
10010010001
10100100
100011111
10010111
11000
1111111111011001
100
1110
0
10001
111
100111
111
10
1101000
110101011
111001100
10000101
10011110010
1001010101
100001000
10010101
1001000001
11101011
1001100001
100000010
100100010
100111
10001
1010011
1010111
11001
10001
1111111111101111
1111111111110110
1111111111101101
