11011
1111111111110111
10011
1111111111111010
10
111
10000
1111111111001010
11111
0
1
1111111111110110
1111111111111011
1111111111100110
1111111111110101
0
10101
1111111111110000
1111111111110111
1111111111100111
1111111111110110
1111111111110011
111
101
1111111111111100
1111111111110000
10
1111111111110110
1111111111101110
10011
1111111111110111
1010
1111111111101100
100000
1111111110100110
1111111101000110
1111111000000001
1111111100110000
1111111100011110
1111111100001010
1111111001100111
1111111010111110
1111111101011000
1111111100101010
1111111010100110
1111111101000011
1111111110110001
1111111101100110
1111111101110011
1111111110111010
1111111100110110
1111111100001010
0
1111111111110110
1001
1111111111110100
1111111111111100
1111111111100001
1111111111110111
11100
0
1111111111111000
1111111110010000
1111111010111111
1111110011110010
1111110001110100
1111101000000100
1111101100101110
1111101111011011
1111110001010000
1111101011110000
1111101011011100
1111101001001100
1111101011001110
1111101111001101
1111110000011111
1111101111000001
1111110001011100
1111110111000000
1111111001111011
1111111110101110
1111111111100101
1100
1111111111111110
10110
10000
0
1111111111011111
1111111111111100
1111111111101001
1111111101110010
1111111011111100
1111110001001000
1111100010000111
1111011001011001
1111100000000110
1111011001011011
1111000111011011
1111010100111010
1111100001111010
1111011111111100
1111101111110111
1111100101000111
1111101010010111
1111110101001011
1111111000010100
1111110101111100
1111101011111100
1111101101110010
110111
110111
1111111111111000
1111111111011011
1111111111010110
10
11
1111111111011101
1111111101011110
1111111101001100
1111111000100011
1111101011101100
1111011000011000
1111001110011110
1111101100001101
1111101110100101
1111100010001100
1111100101011100
1110010
1111111000110100
1111111110000101
1111110100010110
1111110010001011
100101
1111111101001000
1111110010000010
1111111011101100
1011111
1111111111000101
1111111101110111
1111111111011000
1111111111111111
1
100010
1111111111101101
1111111111000111
101110100
1111111101110101
1111111000100000
1111111111100111
110100
1111100011010110
1111110001101111
1111111101101000
1111101110111011
1111110000001101
1111110000101001
1111111000001011
1111111011001010
1111110110001100
1111010110011110
1111100111001111
1111100000100010
1111110100001110
1111111110011000
1111110011011100
1111111111111110
1111111110010101
1111111111101100
111
11
11010100
10011101
1111111111111010
10001001100
10011000111
1111001110
1000111000
1111111100100010
1111101110100111
1001010001
1000011011
1111110000111011
1110010
1000000000
11010001
11111010
100110001
11101110
1111100110110101
1111111111110001
1000101111
1111111100001011
1001011
111101
1010
1111111111001110
1111111111110101
1111111110110011
111000000
1101110000
101011100
1111110111101100
1111101111
11001001100
1111111011010000
1000000
1111101
1111110001001111
10010101111
11011001
1111101001010001
1111101110111000
1010000001
1111110100
101110110
1110110011
100110010
11010010
1111111101001011
10010110001
1111111000100000
1111111100001011
11000010
1111111111011001
1111111111110111
1011011
101101110
1011001101
1111111101010011
10100110
10001110
111001111
10001110110
110100011
1111111111110101
1111110110000111
1000011101
1111111100101110
110111111
10101011000
1011101111
1111111101111010
101000010100
100110100
10110001001
1111000111
1111101
11000110000
100000111001
100001001
1111111010111111
1111111110111110
0
1001101
11110111
1110101100
10100100
101110101
1011101010
1111111110100111
100111011
10000101001
100111101
1111111010001101
1111111100011001
1111101111
1001010010
10001000101
1010000010
100111100111
10001100100
110000001
111001010
1111111110111111
10010101
1111101100100001
1101010111
101001111
111100010
110010110
1000
1010111
101101110
10001001011
111011111
11101001
1000010110
1111111110000000
1111101001010110
1111111
11000
110110011
1111111101
11101100011
1111110110110101
10100001110
10111010100
10101110110
1111111000111000
10101110001
11111011011
10111011011
1111111110111110
1111110101000001
110110000
10011010110
1010001110
10111010
1110
1101100
1010111010
1111001110
1111111101011111
1111110100011110
10100101111
1111111011110001
1111110101101111
1101000001
11101010110
100000000111
1111110011101100
1111110100101110
1111101001010011
101100001
10000010110
1111101010
100000011
1001101
10001011101
1111100111
1111111100000110
1111110101111000
1111110010100100
1111111111011000
11100110
1010001
1111111111111001
11110
110100010
1000
1111110101110010
1111110100101110
1010100011
1111111001100001
10010000010
1010111100
1111110100001101
1111100110111110
1111110011000001
1111111011011100
1111101011110001
10110101001
1001000110
1111111010110110
111000101
10010010000
10101110
1110101110
1111111101111011
1111110000101111
1111101010011001
0
1000000100
1100011
1111111111011010
1111111111111001
10110001
100101
10000110000
10011110100
1110001010
1111111111010110
1100101011
11100010
101111010
1101101100
1100001000
1111101110100000
1011111101
111101111
1111111000011001
1111111101110101
1111101111001110
1111100111110010
1111111000010101
101110100
10001000011
1111111010010110
1111110000010101
1111111111111011
0
1111111111001111
1111111111101110
1111111111111001
1110010
100111000
10110010010
10011111100
10100011111
11101101010
10001111011
1010111100
1110000101
100010111
1111111
1111101010001100
1111111010010010
1111111100100111
1111101011001000
11000001111
110001101
100000111111
111011111
1110100100
10010001101
10011011010
111001011
1111111010101100
1111111101110101
10000
1111111111111000
1
10000
100000001
10110101111
10000001100
10001110011
11101000000
10010001101
10011110000
1110001011
1101110111
1010110110
1111101111111100
1111110001010110
1111111010111011
1111111111001111
10110011
1011001000
10011000011
1111111100110001
1001010001
111001010
1101010111
10001100100
1111111001001001
1111111110100110
1101
1111111111110101
1111111111111110
1111111011110010
1111111001001001
101010110
101011011
1100111100
10110010111
101010101010
11011110111
10000110000
1111110100101111
1111110110111111
1111111111100010
1111110001100000
10001001111
1111111110101111
1100111000
1011011111
1101000011
1001001000
1111101001101110
1111111011101001
11100000
10000
1111110011111100
1111111101100101
0
1100
1111111111010010
1111111010001110
1111110011100100
1111111101100101
1111111001000011
1011110000
1000
10001110011
11001001011
1111111011111010
11101011111
11100111110
10110100000
1111111101110000
11001011110
11101011010
10100010101
101100110
1111110011001100
1111110001100111
1111100110010000
1111111011000110
101001001
101110
1111111011111101
10001000
1111111111000110
1011
11100
1111111101100010
1111110001100010
1111101110100011
1111110111010001
1000000010
1111101100001110
1111101000000011
1111101111001011
1111101101010101
10011111011
10111100011
11110101010
1110111000
10010011111
1111111100100010
100000010
1100101100
1111011001
1101010010
1111101111011001
1111101110000000
1111110011000000
1111100101110101
1111110110100111
1111111
1111111110101100
1111111111111101
1111111111001010
1111111101101100
1111110100101100
1111100111100111
1111111000001101
1111111011010111
1111111111010010
11111101
101001010
1111110101111111
1111111010001101
1011011000
101000110
1111101101101011
1111101111101111
1111101000111011
1111100001000110
1111110001100111
110111011
1111110011010100
1111101110110010
1111100001100011
1111100010011110
1111101110000000
1111110111110111
1111111101100011
1001
1111111111011111
11001
1111111101000010
1111100110010110
1111011011110110
1111110001111101
1111110101110010
1111100101101111
1111110000001100
1111111011100101
1111100100000101
1111110100111011
1111101000110011
1111011101010010
1111011011001000
1111101100010000
1111100000101101
1111100110011100
1111011001000000
1111110100100100
1111011010001001
1111100011100100
1111100010110101
1111110100011011
1111111111100100
1111111101110010
1111111110111010
1111111111100000
1111111111101110
100
1111111011110100
1111100111100001
1111011100110101
1111101101101100
1111110111000101
1111010000011011
1111000010010010
1111010101000011
1111100000101010
1111001011011111
1111010101000110
1111011010110010
1111100011010100
1111101100011111
1111011000111010
1111100010010100
1111010110001010
1111111100110001
10010010
1111111001110010
1111101100001011
1111101101010110
1111111110000100
11001
1111111110111111
111
1111111111111000
1111111111011000
1111111100000101
1111110001110010
1111101101010101
1111101100101001
1111111101000111
1111111111000111
1111101010011010
1111110100101100
1111111011000011
10011000
1111111110011100
1111101100000001
1111111000000011
1111111011001010
1111110011101011
1111101110101110
1111110000100011
1111101011110001
1111101110000110
1111101110110000
1111101111011101
1111110001011010
1111111110100001
10100
10110
1111111111110111
1111111111111100
1100
1111111100011010
1111110111110001
1111111100011000
1111111001111101
1111110011011101
1111111011010001
1111111100001011
1111111111001000
1101000101
10000000101
1111100111000000
1111100111111111
1111111000101100
1111100000001101
1111101101000101
1111110101110111
1111100110001111
1111011100010111
1111101010100010
1111101001101001
1111100010100100
1111100101011110
1111111011011000
1111111110000110
1111111111111010
1111111111111000
1111111111111101
11010
1111111101101101
1111111101000011
1001101
10100011010
1111110101101101
1111110100001001
1111111000001101
1111100111001110
1111100101010110
1111111101101101
1111100110011110
1111110001111111
1111101000100110
1111100101111100
1111011010101000
1111101100110011
1111011110010000
1111100110110011
10011111
1111111001101111
1111110011000100
1111111000000010
1111111001010101
1111111101011000
1111111110111100
11001
10101
1000
1011
10100101
1000101100
1001010100
1111101111000001
1111110001110101
1111101110011011
1111110101111101
1111011101010111
1111110100100110
1111101110000001
1111110011111000
10001
1111111010110101
1111111100000001
1111111100111101
10011101
1111111001111111
1111111110100000
101101010
110110000
100001110
100001
1111111111011110
1111111111101010
10
1111111111111010
100
1111111111111111
1111111111111101
0
1001101
10010100
110001000
101000111
100100010
1111111010010110
1000110
101101010
110100100
1011110011
1111111111111110
10000010
11111101
11001101
101111000
10101101
101100100
100010110
1111111111111111
110
110011
11100
1111111111110111
10101
1111111111100110
1111111111011010
1111111111111000
111
11
1111111111101110
1111111111110000
1111111111110111
100
100100
10100
1001110
110000
1110111
1111111011100100
1111111111110000
11001010
10001100
11001110
110110
100110
1111111111111111
1111111111101111
1111111111111101
1001
1100
1111111111111110
