1111111111011010
11010
1
1111111111111110
1111111111110001
11010
100111
10
10110
1100
1111111111110101
1111111111011100
100
1111111111101000
1111111111111101
1000
1111111111011111
10000
1011
0
110001
1011
111
1111111111101001
11111
1111111111111111
11101
1001
1111111111110100
11010
1111111111110101
1111111111110110
100010
11110
10011
1111111111101010
1111111111111011
11
101
1111111111110100
1110
1111111111110011
1111111111101100
1111111111111101
1111111111111011
10011
101
1000
1111111111111101
10110
11111
10000
1111111111111000
1111111111111101
1111111111100010
10101
1010
1000
101
1111111111110110
1111111111111001
100000
10
10010
1100000
1010011
1111111111001100
1111111111000011
1111111110001111
1100110
1111001
1000001
1111111011100001
0
1111111110100011
1111111100010011
1111111110101100
110
1111111111101111
1111111111011111
100
1111111111101100
1111111111110011
1111111111011111
1111111111011101
1111111111010001
1111111111110010
1111111111110110
1111111111110100
1111111110100010
1111111111000101
1111111110011011
1111111010011100
1111111111000001
1111111010100110
1111110000100111
1111011110010001
1111011110000100
1111101101000100
1111110101010001
1111110100011000
10101
1001110000
1010100100
10111
11010010
1111111111100001
1111111011000100
1111111010110111
1111111101001011
1111111111011110
11011
1111111111110111
10101
1111111111110000
1111111111101001
1111111111110100
1111111110000100
1111111110101101
1111111100111000
1111110110110001
1111111100111001
101100110
1111110010001111
1111110001101011
1111111000100101
1111101010111011
1111010111100100
1111101101111111
1111111101001110
111
1101000011
10001010000
1000111110
1000101001
100000101
1110110
10101001
1111111111011011
111
1111111111011010
1011
1111111111111110
1111111110001010
1111111110010011
1111111000000001
1111111100010001
1111110111010101
1111110001001110
1111101011110001
101110110
1111110000001100
1111110011010100
1111101001001100
1111110001100010
1101010111
111111111
1111110101010101
1111101010000001
1111110010001010
1111101100011011
11011001
110000010
1101110001
110101011
1111111101100011
1111111111100011
10111
10000
1111111111111000
11
1111111101100100
1101
1111111101101000
1111101111010111
1111101111010000
1111100111111101
1111100111000000
1111100011001111
1111100011010111
1111001110010100
1111011000101000
1111011110000100
1111010010110101
1111001110110111
1111000011011101
1111011101111010
1111110000100000
110000010
1111110010111001
1111111001110011
1010110001
1001001011
1111111011001101
1111111110000111
1111111111111001
1111111111111110
1111111111100001
11100
1111111101000000
10000000
100111001
1111111110011111
10110111
1111101110111010
1111111010110110
1111100010101100
1111111011011000
1111100011110110
1111100011110010
1111001001000010
1110101111101000
1111010010111011
1111111011001110
1111111000101011
11000011001
1001010000
1111110111001100
1111110111001010
10000100110
10100010110
101100110
1011101
1111111110111111
1111111111100111
10110
10001
1111111011110011
11101000
10000001000
1100001100
1110000111
1111111001010000
1111110000010001
1111111011000010
1111100110001100
1111000011010010
1111001000000011
1110110000100011
1111011101111101
10100
11000000110
1111110110101100
1111111111111011
101100011
1111111101100001
101110001
1100101100
10011110010
1000101
1111111110010011
1111111111110100
10001
110
1001111
1111111011000101
1000010
1101001001
1111101101000010
1111110001011110
1111101001100100
1111011001011010
1111010000000010
1111011101101111
1111001101111101
1111110000011010
1111101100001101
100111010011
101010000101
100101110
1111111100110000
101110110
1100
100111101000
11011111001
10111000010
1111111101111000
1111111100011010
1111111101111110
10001000
1111111111111000
0
1111
1111111011110011
101101110
1111111110110000
1111001111010010
1111101111000101
1111101101100100
1111110101100001
1111110110111100
10000000001
11000101101
1001101001110
1010011101101
101111000110
1111110111010111
10100110101
10000111
1011101110
1110011110
110
1111100
1010011000
1111111111011100
1111111101110100
1111111111111000
110001
1111111111111001
1111111111111100
11
1000
11101100
1111110010011010
1111100011110100
1111101111011001
10010101111
10000010011
100000101101
10010001000
100110100011
11111000111
10011
1111101100111111
1111111010110101
1111101111011001
1110000101
1111111110111101
1100111100
1111111010011000
1001101
1111110110101101
1111101010010101
1111110001110011
1111111001011100
1111111111111100
10111
1111111111111101
1111111111011110
1111111101101010
1111110010100011
1111111000110001
1111110010010110
1101110011
100101000110
1010100100
100100101011
11100000111
100010000010
10010000110
10100100
1111111110110110
101111101
1111110010110101
110010001
1111111000100000
1111111010111000
10100001
110011111
1111101001011100
1111110100101111
1111101111010010
1111110101100101
11101
1111111111110111
1111111111111000
10001
1111111000101010
1111110100101001
11001111101
11001010011
1111111100111000
10111101110
101100001
1001011100
11101111000
11100100010
10111110010
1111111100011100
10001101001
1110101000
1111111010010011
10010011
1000001
1111111111111000
100010000000
1110100101
1111111111111001
101000110
1010111
1111111110001001
1111111111111010
1011
11100
1111111111100011
1111111011101001
110111001
101001111101
1011010101
1011111111
10011010100
10111000001
10010001011
10101110011
101001000101
1000010010
1111111111111101
100011111
1111111100100001
1110010111
1110011000
110010100
1111111010101000
111010000
1111111111010101
100001001
1100111010
110010011
110000
1111111111110111
1111111111110111
100
10
100000100
1100011101
11010000001
1110010111
10001100100
110011
100010111000
1111111001110101
1101001001
10101010010
100111001001
1111111000001101
11011
11101111
111111010
1111111110000010
1111111100010110
10000111111
1011110000
1100110010
10001110
1110011
110001000
101001111
110101
10011
11110
1111111111101111
1100001
110111000
10000111110
10011110011
11010110110
11011101101
10110010111
10000010
1000000111
1100010010
100010010001
10000110010
100101100000
100110111000
110111011
1111111011110100
11010111111
110011100
10010001101
11000011
1111111001101111
111010011
1000010101
100001010
1101
100
1111111111110011
10011
1111111101100001
1110001000
10111001111
11000010110
1111010011
101111011
1111111110000101
1111101100110000
1111111111010011
1111111000110111
100011001101
1001010000
11
11111010
111111110
1101011101
10010110100
1000110111
10010110110
1011110011
101011011
1110000100
101101100
1000110
1100
10000
100001
1111111111000001
1011000
10100000011
10101111011
1111111110100010
1111110110100011
1111111001000000
11100110
1111111000010100
11010100
10011110100
11101000101
1111011000
111010110
10100100010
11000100100
100111110011
100000110011
1110000001
11000111100
100000010
1011111010
10000011011
101101000
1111111111010011
1011010
100100
0
1111111111110111
11111101
1110010101
10000011100
100
1111110110011011
1111101100000010
1111111000
101010000
1001000101
1011101
10000001010
1110011010
101010010001
10111010100
1011000001
10000101
1111101000100001
1111110011001101
1111111000100100
101001
11001011
10111011
100110010
1101010
100100
1111111111110010
101001
1111111111110000
11010111
1001111001
1111111101111111
1111111001001110
1111111011001101
1111111101011111
1101010001
1111110001001100
100010110
10001011
11110011
10000100100
10001101100
1111111011
10011001011
10000111
1111010010100100
1111100001101111
1111011110101110
1111110100111010
1111111010100110
1111110101011000
1111111010101011
1100100
1111111111100010
11101
1111111111011101
1111111110100111
10110110
1111111101111100
1111110010111101
1111101100001100
1111110011100011
1111111011110011
1111110010011010
1111100101100000
1111101001110010
1111101000110101
1111101110110111
1111100010110000
1111010101001010
1111101001010100
1111110101100011
1111111000011101
1111101001000111
1111100010001101
1111100111110110
1111110001111101
1111110100010000
1111111000011011
11010
1111111111011011
1111111111011010
1111111111101101
1111111111111111
1111111111011011
10010110
1111111100101100
1111111010110001
1111100101110001
1111100111110100
1111101100001111
1111011100101101
1111011101111110
1111011010110010
1111010010100000
1111100111001101
1111010001000001
1111101000010000
1111110101111101
1111101010101100
1111111100001001
10000000010
1111111011011111
1001010
1111101100110100
1111100000100010
1111101111010100
111
10110
10111
10010
1111111111111100
10
1001110
10001100
1111111111111101
1111101111111110
1111101100100000
1111110011011001
1000001
1111110101101111
1111110001100100
100001001001
1111111010011111
10111011
1111011101100011
1111100100011000
1111100010110011
1111101111101000
1111110101001010
1111110110100111
11010011
1111100001100111
1111011001111011
1111101011100110
1111111111111100
1010011
1111111111101000
1111111111110111
1111111111110000
1111111111110101
1111111111001100
1111111111100011
1111111110011010
1111111011011101
1111101110001011
1010110
11001101111
1110110010
1111110100001010
1111110000010001
1111101010000101
10010110101
1111101101100111
100010
1111101010100100
1111101001011000
1111110001001010
1111100111101001
100100011
1111110001111011
1111100110101011
1111111000011010
110
1110
101
1111111111100101
1111111111111000
1111111111111010
1011
1001010
1111111101000110
1111111000111101
1111110111101101
1111110010111110
1111111101001001
1111110101100010
1111100110110001
1111100010110111
1111101000100001
10011001
1111101110110110
1111100000110100
1111100000101001
1111110000001011
1111100010100111
1111101000101101
1111101100101001
1111111000000000
1111110011000011
1111111100001000
1111111111111110
0
1111111111101100
1111111111110101
111
1111111111110110
11
1111111111001101
1111111011011001
1111111010110000
1111111001110101
1111110111110011
1111110110110101
1111101100110000
1111100111110110
1111101000010011
1111100001111100
1111011011010011
1111100111010111
1111011010100001
1111100100011010
1111101011100010
1111110100000011
1111101010111111
1111110000001101
1111111011101110
1111111101110010
1101
101101
100
1111111111100010
1011
1111111111101001
1111111111111000
1000
1111111111110000
10
1111111111101100
1111111111101000
101
1111111111110011
1111111111111000
1111111111101100
100001
110100
1111111101101110
1111111000101100
1111111010011100
1111111111001000
1111111111111100
1111111111110111
1111111101011100
1111111101011111
0
1111111111101001
1111111111011110
10001
11101
1111111111111011
