10110
1111111111111010
1111111111100101
1111111111011100
1111111111110000
11110
1111111111111100
10010
1111111111101100
1111111111110111
11111
1111111111110011
1111111111110100
1
1111111111101111
110
1111111111011101
1
1
1111111111111111
1111111111101101
1111111111011110
11111
11011
10
10101
110
0
1111111111110111
1111111111111110
1111111111110011
1111
1110
100010
1111111111111110
1111111111111110
10001000
10001
1111111111001001
1010110
100110110
10100001
1111111110010111
110101
111101000
11000000
1111111111100011
1111111111000111
11001
101000
110
111
101
1010
1111111111011110
1100
1111111111011001
101
1111111111111110
1111111111111001
1111111111111111
1111111111100001
1111111111101010
101100
10001000
11000011
10000100
1000110
1100001
1111111000100110
1111111000110111
1111110101111011
1111110110001111
1111101110110110
1111110010000111
1111111001101000
100101010
100000101
1010010
1111111111111100
1111111111111100
11000
1100
10010
1100
11
1111111111110100
1101
1001
1111110110001101
1111110101101011
1111110010100011
10000100
11010011
1111111000101100
1111111100011000
1111101100000110
1111111101101000
1111111110100100
111111110
1011100000
10110100
1101100
1111111110000100
10011111
1111111110010101
1111111000000000
1111110111111101
1101011
1111111110010001
100011
1
0
10011
1111111111100011
111
1111111111000101
1111110010011011
1111110010111111
1111110110111011
1111111011011111
111000110
1111111010110001
1111110101110001
1111101110111110
100110
1111111111110001
10011010000
1111111001010111
100110100
1111100000110110
1111101111010110
1100100
1111110110011011
1111111011111110
1111111010110110
1111101110111101
1111111100011011
1111111101010110
100000
1001
10011
1011
1111111111011101
1111111110110001
1111101001001001
1111110111101000
110011101
1000010
1111110001101010
1111111111001111
1111111011010100
1111110001111111
10011001110
11000101101
1111111110001000
1111110100110000
101111110
10110000101
111100000
1111111110010100
1111110001110011
1111101000111010
1111100101100111
1111110111011101
1111110011111010
1111111111100101
110010
11
1111111111110000
110000
1111111110110000
1111111110101111
1111111000100110
1111111010011010
1111111101001001
1111110001011001
1111110001011100
1001111
10100101
1111100111111010
1111110110110001
1011110000
1001111010
1000000011
1111111010101010
11011010
1111101000110100
1111101010110010
101011
1111110100000001
1111100111110110
1111011011001000
1111101100101111
1111111100010100
1111111111111010
1111111111110000
1111111111101010
1001011
1111111110101101
1111111111010100
11001011
10001001100
1111101101000011
1111101000011110
1111111101110100
1111111001110011
11001110111
1111110100010010
10100010
10011100111
1111111101011101
10001001110
1111111100110110
1110100010
1111111001100101
1111111011101110
10110101
11000
1111110001011011
1111100111001100
1111110001110011
1111110100011000
1111111111110110
1111111111101010
110
1101
1111111110100001
1111110111111011
1111101011010001
1111101101000011
1111111001100011
100000
1111110001111001
1111110101100011
0
1100100001
1111110100010010
11101011
10010111001
1101110111
11100010001
1111111101011001
1111111001110010
11001
1111110000110101
1111110000111010
1111110011101101
1111011110110010
1111101001111010
1111111000110100
1111111111000011
11001
1110
1111111111111000
10100
1111111011100001
1111100000110001
1001001
10101
1111100101001101
1111110110010111
1010101111
10110111
1011111
1000001111
1111111101110110
1111110111001001
110001111
10011001
100100010
10001110
111001111
1111100101101110
1111101111111100
1111110111111011
1111110010111011
1111101011011000
1111110100000010
1111111110111011
10011
1111111111110111
10011
1111111110010101
1111110101011011
1111111111110000
111101
1111111000100011
1111111010101000
1011111000
1111111001110110
1111111100111111
1111111111101010
101
1010110100
1111110011001000
1111111101110100
11010011
10100110010
1111111001110110
1111111101111101
111010101
1111111011111010
1000001101
1111101101101110
1111100001110001
1111111010000110
1111111110111011
10001
10101
1111111111100111
1111000
1111110010100011
1111111011000101
111100111
1111111010101001
1111100101011101
1111111001100111
1111111010111100
1111101000001101
1111110011001001
1111111000000011
1111101010100101
1111010001101111
1111011111000010
1111001101000011
1111110110100010
1100101001
1111111111110000
1010010
1111111010101110
1111111111101010
101111100
1111111111111100
1111111101100101
1111111111011111
1111111111111000
0
1111111111110101
1111111110101110
1111101101110010
1111110100011001
100101000
1111110001100111
1111110001100010
1111111100011101
1111111101001110
101001111
1111111010111101
10001110100
1111110111001100
1111010110110100
1111010111011001
1111110101000010
1111110111100111
11001111
111101111
10101101110
10100111111
11011110000
110011010101
11101011000
110111001
10001
1111111111101000
1111111111011010
1111111111111100
1111111101110000
1111111000110100
1111110111110101
10001101001
1110001001
111111
10100011110
1110101001
1111111110010010
11011101011
1111111111110000
1111100001011101
1111011011000111
1111011100111100
101110011
1111111100100010
1111110111001101
1111111100011101
1111111000010101
1110000010
101101010110
101101101000
100101111011
1000111101
10000100
1111111111111011
1111111111001010
1111111111010100
1111111011110111
1011000000
10001101110
10111100110
101001011110
1110010111
11100001000
1111111011001101
1111110000
1110100110
1111101011000011
1111011100010110
1111101100110010
1111101100101110
1111110100100001
1111111010000101
1111110000010011
101011110
1111111111010000
10101001100
11001111110
1101011110
11111000011
100100000
11110
1111111111101011
1111111110110111
1000001
101011100
10001000100
10101011001
1111111000001011
111111
11011100
1010101111
11111001010
10010001011
100111100001
1111100101111111
1111000110111011
1111110000010111
10011000
1111110011111110
1100001111
1111110110
1111110001011011
1111101110110010
1111111000011100
1111111100100100
1111011110
11111100111
1000010011
10110010
1
1111111111011101
101011000
1011101100
1110010
1111111111000100
1111111110000100
1100001011
11100110010
100011001011
11100010000
101110110110
11101101000
1111010110001010
1111011010000100
101000000
10110101
10101110101
11110101000
10000100110
101010000
11110101110
111110100
1111111101100111
1100000001
100110011101
10000001010
1011001
1111111111101000
1
1001011101
110100000
11110110
10110000110
1111110011101110
1010001010
1001010000
1111111001011111
110000101010
11000000110
1000110101
1111010100101000
1010010010
100000000001
1001000000
10110010
10100110
1111110011011101
1111111010000011
1011111010
100000000101
1111111000010110
101010
100010011010
111110101
100001011
111
0
1101011
11010011
100101011
1011111100
10100101110
100001110010
100110110
11111001011
11010111101
1010110000
1111101100101100
1111001111110001
1001110100
11001001
111000111
1111110001100110
10011000001
1111001011
1001101010
101010101
100001001110
1011111010
10001100010
10110010110
1111111111011110
1101010
11011
1111111111110000
1111111111101010
1111111100011001
11000001
1111110110011101
10001001111
10110001110
10100000100
11100011100
1000001000
111000110
1111111001001100
1111100100101001
1111110000000100
100001000
1111111011001111
10001001
1111111000010100
101100
1010111
10001110000
11001110000
1111001010
10010011110
10010111111
100101100
101110
10101
11000
1000001
1101000011
11000110111
10100000111
1001010101
10010100100
11010111010
11010111110
10110101100
10100010101
1111111101111110
1111010111101111
1111001101110101
1111101011000000
1111111111000101
1111111110000100
10011011101
10000010000
1111111110101010
1110110110
1111110100101000
1111111011100011
10111001001
1001110001
10000010
10011
1111111111111001
1111111111111110
1011110
1100100100
10101100000
10010000101
10010000001
10000010101
101
10100001
10111011
110000000
1100111001
1111111110000111
1111011100011100
1111011111000000
1101001
1111111110001110
1111111011010011
1111110111111100
11000110
10001011101
10101001111
1010010101
10110001011
1000100001
100101000
10010
111
1111111111111110
110110000
111111010
1001011100
110010101
10011100001
1010111110
1111111101110100
11011000010
10111001111
1001010010
11001010111
1000010110
1111100100101001
1111101001101000
1111010000000111
1111101101011100
1111110010010011
1001000100
1000100
10101011100
110011111
1111111110101010
1111110001
111010000
10101
1
1
1000
10100
1001111
1111111100010001
1111101111111001
1111111011001101
10110111
1010111101
1111111111000101
10010111111
10111101
1111101110110101
1111110101110010
11010100
1111100011001110
1111100000100000
1111100011100010
1111110100000111
1111111000110010
1111101110110111
1111101010101000
1111110011111101
1111110111010010
101001111
11101010
11000
100010
0
1111111111111001
1111111111111010
1111111110011110
1111111011101101
1111110010010001
1111110000011000
1111110001101101
1111110001010001
1111111000100100
1111110000111101
111111110
10111100101
101110111
1111110101011010
1111101111110000
1111101101010011
1111011100111101
1111000111111111
1111001010001100
1111001101111001
1111011000000001
1111100001011100
1111101010010010
1111111100001111
1000000000
11011100
100100
1111111111111110
1000
1111111111101000
1111111101110000
1111111101011001
1111111010101011
1111111000100100
1111101111101000
1111100101010100
1111011011000011
1111011101110001
1111101011111101
1111100101001111
1111101000110010
1111100111100111
1111011011100010
1111100111110111
1111100110010010
1111100011101101
1111100001111000
1111011110101100
1111100010000101
1111101011101011
1111101111001000
1111110110111101
10001100
11111100
1010
1111111111100101
10011
1111111111101101
10111
11100
1111111110111000
1111111110000111
1111111001011011
1111111000101011
1111110110110010
1111110101001101
1111110111110000
1111111100011001
1111110100001110
1111110001110101
1111101101111010
1111101111010001
1111111001110111
1111111010001011
1111111011100000
1111110101101001
1111110000111001
1111111011101111
1111111111110011
1111111111011011
11000
1111111111111110
11101
1101
1111111111111100
0
100011
110
11010
1
1111111101111100
1111111110011001
1111111111100001
1111111111000111
1111111111011010
10100
10100
1111111111110100
1111111111101110
1111111111101010
1111111111111000
1111111111110011
1111111111111011
11100
1111111111001011
1111111100111010
1111111111010101
1111
10110
1011
101
