101000
0
1111111111111010
101011
1111111111010100
1111111111110001
101
1110
1111111111110001
10100
110001
1111111111101000
10000
1111111111101100
1111111111110101
101
1110
1111111111111001
101
0
110
101
100011
1111111111001011
1111111111011010
11101
100001
10
1111111111111000
1111111111101101
10100
1111111111111100
1010
1111111111110000
10011
1111111111100000
1111111111000010
1111111110111010
1111111101010110
1111111111100010
1111111111000011
1111111110011000
1111111110000000
1111111110101000
1111111111100111
1111111111010010
1111111111010011
1111111111010101
1111111111100110
1111111111111001
10011
1111111111101100
100100
1111111111111111
1011
1101
1111111111100110
1111111111110110
1111111111110111
101011
1111111111001001
101
1111111110010011
1111111100111011
1111111101101111
1111111111100100
1111111010101011
1111110111100110
1111110100111100
1111110101100111
1111110010000111
1111111000101010
1111111101000100
1111111011111101
1111111011100000
1111111001101010
1111111100001111
1111111101000101
1111111110011001
1111111111101000
1111111111111111
10001
1111111111011110
110
100
10011
1111111111110111
1111111111100011
1111111111110100
111100
1111111111010100
1111111101100101
1111111100000001
101001
1111111011101011
1111110010110010
1111101011010001
1111011111100010
1111011001010101
1111100000101100
1111101011100000
1111101001000110
1111110010100100
11011010
1011101101
111001000
11101110
11111011
10011110
1000001
1111111111111011
1111111111101110
1111111111101100
1111111111101111
1111111111001111
1000
0
100111100
1111111011100100
1111110111110111
1111111011000100
1111110110011000
1111111000000111
1111110101100100
1111111110001010
1111111110110001
1111110010000000
1111111110111010
1111111001110110
1111110110001011
1111110111101010
1111110110111100
1111111010001010
101111
1111111011001101
101101
110000101
100101100
1101000
1111111111010001
10010
1111111111110101
1111111111110010
1111111111101111
101010110
101110101
1100001
1011111011
10011110
100011000
1111111011111001
1111111110011111
101001010
1111111010100111
101001011
1111110101001001
110
1111111010001011
1111110010010010
1111101010110000
1111110000100101
11011100
1111111000110011
1111110111110000
1111111110110100
1110101
1111111100100100
1111111101111110
0
1111111111110100
1111111110010110
1111111111111100
101101000
1111111100101010
1111000101
111011
10000110
1100110100
1010000100
1111111101000001
100100111
1111110100101011
1111110110110001
1111111000000011
1111111111101101
1111111000111100
1111110010111110
1111101010110001
1111110000001101
1011000011
1111110011000101
1111111000110110
1111111101100001
1011110
1011101
110111
1111111111111010
11111
10101
110001010
10000001110
101101110
10110011
1111111110101011
1111111110111100
1111111101111001
1101000000
1111101000111000
1111111011010000
1000101110
1111110001110100
1111100010011011
1111110111110001
1111110110001110
1111111101011011
1111110001000101
10001010
10010001011
10000110000
1111111100001011
1010000
100000101
110010
11110
1111111111111100
10011
111101
1001000111
11001100101
10100101010
1010010001
101001111101
11110110110
1111111100001100
11101010000
1110001100
11001101010
1111111010010010
1111111010100010
1111111010010111
1111100110100101
1111111001101000
1111111011000101
1111111101101110
111110001
1111110001111001
11010001111
100001001
1111111010001100
1111111001011000
10110101
1011100
100
1001011
1010
1011111111
11101101101
100000100011
11101101011
100001100100
11001001111
10011010111
1111110001111100
1111111111011111
1100110011
11101010110
101101111100
1111110011100110
1111110110000101
1011011110
1111111100110001
1111111100000111
1111111010000011
1111111011111000
1111111010111101
1111111010100110
1111111000010110
11011000
1001100011
101010111
1111111111111101
10100
1111111111100000
1110110
1011100100
10100111011
10110010100
1111111101100011
1111110110001111
1001001011
11110001100
100110100010
11110111110
111001001110
11101001100
1111111100001011
1111101010010000
1111110101100011
1111111100101001
1111111010110011
1111110000100111
1101011100
1101011001
10111111
11111001
1010001
1000110011
10001101
1101
1111
111100
100100011
100001101010
100111100011
1111111011110110
1010011001
1111111100101000
100010010011
10111010110
11011001100
1111110101010010
1111110101001011
1111100111001111
1111100100111111
1111101101011011
1111111101001101
1111111000010101
1111111000100000
110010
1111110100110000
1111111111110101
1111111111011100
1111111000110010
1111111000110110
11110101
100000
1101
110000
11000100
1111111111100111
10010011100
11001001111
1110011011
1010110101
100101110111
11100100101
1111111010001001
1111110101011111
1111111001111000
1111011110101111
1111111000011010
1111101010011111
111101
1111110000111000
111101000
1111111111111010
1111111110101101
1111111001110101
1111111001110100
1111011111101101
1111110010110010
100001100
100100100
10101000
1000
100010
10110100
1111111110001110
100000010
101001001
10010001000
1111110101100001
1111110010000101
1111111001010000
1111110011011100
1111100101101100
1111001100000100
1111110000101111
10011011011
1111100110001100
1111110110110010
10011100
10010010001
1111100111011010
100001110
1111011100111000
1111100110110111
1111011000001010
1111110011101100
111110
111010110
100011011
10011
100
11011011
1111111001110101
1111111000001011
1111011000011000
1111010111110001
1111010111000010
1111011111000110
1111000100100011
1111010001101101
1111000000000001
1111011111110011
1111111111110000
1111111101100001
1111101110010111
10111
11101000
1111101101001000
10011011010
1111100001000110
1111100010000110
1111101100001010
1111111011110000
1111111010101101
11011101
111101111
110000
10011
1111
100111000
1111101110100010
1111001110000001
1110110000111001
1110111011010111
1110101001010100
1110100001001000
1111000011011010
1111010100010110
1111110110110011
101000011
1010011100
1111000101
1111111010001100
1111111000011001
1100110110
1111110101111110
1111110111000010
1000011110
1000000
10110011000
1111110010011111
1110000011
10100001010
10000110110
1110110
11100
1111111111111111
11001001
1111110000110110
1111000100110100
1110101101001111
1111000001110011
1111010011100100
1111100010000101
1111111110011011
1010100100
1111111010110001
1111111010001000
1010011011
1111111110000100
1101100011
1111111110011110
1111110010101011
1101000101
11101001001
1001
10001111101
101111000
1111111100101100
1000110101
10100000011
10011000010
100101
100010
10
1001100
1111111001001010
1111100010010010
1111011001011100
1111110010100110
1000010001
1010010000
100011111
11000101
1111111000000000
11110011
100001001011
100010010101
1111110111110110
10101011
1111110110101100
1111110001101011
1011010
1111101110110111
101100100
10001110101
1111111011100100
11110110
11111100001
1101011011
1001101
1111111111111101
1111111111011110
110011
110001100
111111101
101011110
1000101011
1011111010
11110001
1110110100
1111110110010001
1111101010010000
1100001010
1110000101
1111111110010101
10000001000
1111101101011110
1111111011111001
110111010
1010101111
1111110110001100
10010011100
1110001001
1111111110000100
101001111
1100010111
11001101
1001111
1111111111111001
1111111111111011
1111111110001111
100100110
10101000011
11010000001
1101000100
10010111
1011111010
1100001000
101000001
110101
1111111011000011
1110100001
1111001101
100010110111
1111111110101000
1111111101110110
1111111000110111
1111110101000100
1111111010101111
10101100
1111110001111011
1111111000011010
101000111
100011000
10111001
101101
11100
1111111111111010
1111111111110011
1011010101
10000011100
1101011100
11000101011
10111001011
11100110110
1011001110
11010011
1111110101
10100
1101111111
101100100
1101000001
101111111
1011100000
101000110
1111100110100101
1111110110100011
1000011
1101110
10001010
1111111111110101
1111111010100010
101110
100001
1111111111010010
0
1100111
110010011
1000100010
1110101
1000011100
1111110100111010
100001111
1111111010011001
1001001100
1111110011100001
1101000110
10110110
1111111101010110
10110110
10001001100
10100000011
11010110
110100111
1111110011100000
110101
1111110111001001
10010000000
101000111
1100111
1000001
1111111111100100
11000
1111111111100001
11001
1111111101110101
110100101
10100011
111001111
10110000110
110100001
10011100110
1111111101100111
10001
10010010100
1111111010001000
1111110101010111
1000011101
1100011111
1111111111001000
1010011101
1010000010
1111111011101110
1111111110010110
1111111011111101
111001111
1000100111
100110000
1011
1111111111110101
101
1111111111110111
1111111110111100
1111111100001011
1111111111011011
1100010
1111111100010001
1111110111011011
1111101100111100
10110111100
1111111011000011
1111111010110000
101100111
1111111000011000
1111110010011010
10011110010
1111101110101000
1111111000110111
101110001
1101010111
1111111010111010
1111111010010001
1111111001100001
1111111011100001
10001000
11111001
100
110011
1111111111110000
1011
1111111111100010
1111111101111011
1111111101110000
100000101
110010000
1111111000111010
1111111001000011
1111111001100010
1111111000101000
10010010111
1111101111000101
110100110
100010010000
11011100111
1111101111100101
1110101100
1010000100
111110001
1111110101001011
1111111000100011
1111111100001010
1111110011100000
10010001
1110000
10
100001
1111111111011111
1111
1111111111111000
1111111111111010
10011010
1111111001110000
1111110101111111
1111111001101101
110010100
1000110100
1111111110111111
101000
1111111100
1000011110
1111110101101110
1111111100000110
1001101
1111110011010001
1111101011010001
1111110101100010
1111110101001101
1111111001000000
1111111100001010
1111111001111011
1111111111111100
1111111111010111
10
1100
110001
1111111111111111
1111111111110010
1111111111110100
1111110111001111
1111110000010110
1111110110110100
1111111100110101
1111111110010111
0
1111111000001010
1111111101111001
1111110010011110
1111111000110001
1111101001101111
1111101000010100
1111101010111110
1111101100010000
1111111010000111
1101001011
111000
1111111001010110
1111111010011111
1111111111111110
10
10011
11000
1111111111010101
1111111111010001
1111111111111011
0
1111111111111001
11
10011
10
1111111111011101
111
1111
100110110
1111111101010110
1111111011101000
11101100
1001101
1111111000010011
1111111010001011
1000
1111111011110001
111011
1111111111001010
1111111110001010
1111111101111111
100010
1111111111111001
10001
1001
1010
