100
1111111111011101
11
1111111111110001
0
10000
10010
1111111111100111
1000
1111111111110101
110
1111111111111010
1111111111110010
1111111111011100
1111111111111000
11101
1111111111101100
1111111111111000
0
11110
111
100010
11101
1111111111110110
1111111111110000
11011
1111111111111001
0
1111111111111110
10000
1000
1111111111100010
1000
1111111111110010
10010
1111111111010010
1111111111000000
1111111110101111
1111111111110101
1111111111111000
1111111111100100
1101
11110
1111111101011101
1111110010010110
1111111100111000
0
100011
11101
1111
1101
1100
1111111111101111
100
1111111111110001
1111111111110010
1111111111111000
11011
1111111111101110
11100
1001
10000
110
1111111111101011
1111111101110100
1111111100010001
1111111010111001
1111111001010111
1111111010100001
11111011
1111111001101111
10101101001
1111001000
1100100
1000110111
1011101001
11000111
1010001
1110110
111001
1
1111111111100100
1100
1111111111100000
10011
1000
10000
1111111111111010
101
1111111111110101
1111111111011101
1111111101000101
1111111001100100
1111101111000001
1111101100000010
1111100111010110
1111111011110110
1111101101100011
1111101010100110
1111111100101010
1111110110001111
1111110100100001
101101110
1111010100
101001101
101010100
100101010
110000000
10001010
1001
111
1101
100
1101
10011
1111111111111101
1111111111110011
1111111111010011
1111111110110100
1111111001110100
1111101011011110
1111011101101000
1111100100100001
1111110011000100
1111010011010001
1111110100111111
1111111000011001
1111111011101111
1111110010100010
1111101000000001
1111110000101110
1111101010111100
1111110100100001
111100101
1000110010
1000110010
1111111111011111
1111111101010110
1111111100100101
1111111111100111
1100
1111111111111000
1111111111101100
111011
101
1111111110100110
1111111100101000
1111110111111010
1111011011100110
1111001110101010
1111001011011110
1111011010000000
1111011100100001
100011
1111101010001101
1111110010011101
1111100101001100
1111111000001000
1111110101100011
1111110001000011
1111111001111100
1111111001101001
11001111001
11010011111
1111111101001101
1111111001100101
10010
10011
1111111111010010
0
1111111100011010
11010101
11001001
1111111001110011
1111110010001110
1111100001111101
1111100100011000
1111110000100010
1111101111011001
1111111110111001
1111111111111111
1010101
110110100
1111111011011111
1111101000101011
1111101110110011
1110110110
10011000
11101011100
1111111010110101
100000010
101010100
100100111
1111111000000000
100011001
10011000
1111111111100111
1111111100110000
1111110001100000
111
1100111
1111110110001000
1111100011101011
1111100001001111
1111100100011000
1111110111001110
1110010000
1111111111110101
11100111010
1011010101
11100110100
1111101111110100
10001111101
1011111101
1111110010000011
1111111001000101
1111111011010100
1101
1001111010
1111111011110111
1111111000111011
1111111010110001
1010010100
0
1111111111111101
1111111111111010
1111110100010101
1111111110010010
1111111111111111
1111111000001001
1111100100010111
1111100110011100
1111101101100101
1111111110011011
1111101000010100
1111101001100111
1001010101
11001101011
11000111100
1111111011000011
1111101110100000
1111110110100010
1111101110100000
1011010000
1111101111110001
1111110100000111
1111111111001001
1111101111010010
10000010001
101111111
101110
1111111111000001
10011
1111111111111001
1111111000100110
1111111110000000
1111111101101111
1111110111100011
1111110001110000
1111110000100010
1111110010001010
1111111010001001
1111101001110110
1111110001111011
1111110011001010
10110110000
11001111111
1000010101
1111111000
10101010
10100110110
100000100111
1111101001110110
10111111
110101001
1111100111110100
1001011010
100101000
1000111001
111011
1111
1111
1111111100000001
1111111110000011
1111111010001000
1111110100010011
1111100000111010
1111100110101111
1111110101001000
1111111101101110
1111101010001110
1111110101101001
1111110100000010
11000111010
10010100110
11111001101
101001111001
1111111001101001
1111101101100011
1111111111000000
1111101111011000
1011010110
1111111111000111
1110000000
101011101001
100010101011
110000111
10011
10111
1
1111111111111100
1111111111100010
1111111101010010
1111111001110111
1111100101110011
1111101010101111
1111110010101110
1111111010101110
1111111100111100
1111111110111110
1011110
1111011101
1011001000
100111110010
100010000110
1111100100000100
1111101111001011
1111100110000000
1111110100110010
10010010101
101000010
100110011101
100001111000
1010100001
1111111101101100
1000
10010
100
101
1111111111010010
1111111110110011
1111110110001110
1111110101000000
1111111101011001
1111100110111110
1000010000
1110
1111110110001111
1000100
10110101110
100011110000
11100101001
1010001010
110010111
1111111101110110
1111011110001011
1111100011011011
1111101101101001
1111100110000110
1111110101111001
1111111000000110
1111111111000101
1111111111111011
1111111111100100
101101
1111111111011111
1111111110110010
101011
10010000
1111110001100011
1111101111100011
1111101011111111
1111110010010100
1100111110
11110
1111111011010000
10010000011
1001110111
1111111000
110101110
1111111010010101
111010000
1111010110001111
1111100010000011
1111100100100100
1111010111011000
1111001011000100
1111010110110100
1111101010001101
1111111011101010
1111111110001001
1111111111011110
1111111111111010
1111111111011101
101010
100010011
10011011
1111111011011000
1111100010111001
1111011111100010
1111101011000110
1111111101000101
1111110001101110
1111100100110001
1111101110001100
1111110000000010
1100010
1001000
100111100
1111101100001001
1111011011111000
1111110011000110
10101110
1111011111000011
1111011011001110
1111100011010110
1111111010001010
10001
10100
11
1110
11101
10001
10000100
1111111110010001
10100011
1111110011001010
1111101000011011
1111101110110100
111010
1111110111001111
1111101100111101
1111111001100100
1111101000101111
10000001001
1111111110000000
11110100
1111101110010011
1111101001100000
1111100011110101
1111110111100110
1111101000111001
1111100000110100
1111101000000110
1111110100010011
1111111011010110
1111111101000001
1111111110000100
110
1111111111000111
1111111101101010
1111111100000110
1111111101101001
1100101100
1111110011101110
1111011011101110
1111011001101100
1111010010001001
1111010101100010
1111111100000111
1111101001111010
1111111011110010
1111111101110000
1111110100001010
1111111111011000
1111101110011010
1111010111000101
1111100010010010
1111111010010101
1111111000101100
1111100010110001
1111101001101010
1111111001000001
1111110111010100
1111111011100000
1111111111111011
10010
11100
1111111011101110
1111111100010001
111100011
10110011110
1101010100
1111110111001011
1111100111101111
1111100101000101
1111011110111110
1111111010100111
1111110010100100
1000011
1100110111
1111111001100110
1111110111111000
1111100010111101
1111110010000001
1111101100110101
1111111000010110
1111111010101000
1111111101000110
100100101
1001111100
1110110
100000
1111111111100000
1111111111110010
1111111111110111
1111111101101110
1111111011101101
10101011
10001011
1111111000001000
10010000011
10001000101
10001110010
111011000
1111110001101100
10100110
1111101011111010
11100001111
1111111101011101
1111011111100100
1111101110101010
1001101101
1111111111111000
1111111000010010
1111101110010110
1111100111111110
1111101110100101
11100101
110111010
1011011
10101100
1010
1111111111111100
1010011101
1111111110110110
1111111001010011
10000000
1111101111101100
1111111001111010
101101010
110010000
1000111110
10111111011
1010111100
1011111100
1111110111110100
1111111000000000
1111101111100010
1111101111000000
1111110000111101
11001110
1111101110100100
1111100111100010
1111101010101100
1111110111000100
1000101
10000111
1111111110011110
1001000
1111
1111111111110101
110111110
1111110001101100
1111101100100101
1111101010000100
1011011010
1010100
1001010110
1111111000111100
1111111110101010
10000010000
1010001011
1111110101010010
1001000010
1111101011110100
1111111000111001
1100110011
1111111010100101
10001000001
1111111001110100
1111110111000011
1111110101110101
1111110110110010
100010010
1111111111111011
1111111111111100
1111111111111110
1111111111111000
1111111111100111
1111111011111011
1111101110111001
1111110101001110
1111101110101101
1000100101
111011111
11110011000
1111111110101000
10000010011
1001001110
1011000110
1111111000001011
10110101
101001001
11101001
1111111011110111
1111111101001100
1111101011110111
1111110011
10100101000
1111110011100000
1111111010100001
101110011
1111111110010011
1111111110101010
10110
1111111111111010
1011
1111111111010010
1111111101001001
1111111100011011
1011100000
1111111111011011
1111111011010110
1101101010
100100100100
11011111
1111101111101100
1111110110101000
1111110100100100
100001
1111101111000000
10100101
11011001000
1111111011111010
1111110010111100
11001110
1001101010
1111111100101110
1111111111001000
1111111010110011
1111111011110101
10011
1100
111
10100
1111111111100101
1111111100010111
1111111110010100
10000100010
100101000
1111111111001100
1111101011100111
1111111111110100
1111111010110000
1111101001100011
10000111111
1111110001010011
1111100111011010
1111101111101010
1111101011010001
1001001111
1111101101001000
1111011100011100
1111101100010010
1111101000111110
1111111000011101
1111111101010100
1111111101000110
1111111100011110
1111111111111000
1111111111111001
111
1111111111111001
110011
1110
1111111100000100
1111111101000110
1111101111111110
1111111
1111111011101101
1111111101100010
1111101111101110
1111011110100111
1111110100010100
1111101111111010
1111110000001000
1111111100110101
1111110001000000
1111001001
1111111100000001
1111110010101001
1111110001010001
1111110111110011
1111111011001100
110010
1
1111111111110101
1000
1111111111101000
1000
1111111111100100
101110
1001010
1111111110110010
1111111011101111
1111101111010010
1111110111001010
100010
11000110
1111111000000010
1111111100001100
10101010
1111111110100011
1111011
1111111000111100
1111111000100101
1010100
1111111001000110
1111110111010111
1111111011100101
1111111110100000
1110101
110010
0
1111111111011100
111
1010
1011
1111111111110110
0
1010
1010111
1101100
0
1111111111010111
1111110111110000
1111111000010001
1111110110000010
1111111011010100
10110110
100000010
1001110101
1011011101
111010000
101010000
100000110
11101
100
1111111111011111
110
1111111111110010
1111111111101010
1111111111111100
1111111111111101
1000
11
1111111111101010
1111111111111000
10011
1110
1111111111100111
0
1111111111011111
110
1111111111111011
1111111111101110
1111111111111000
11100
10100
100110
1111111
10011101
1010011
1111100
101
101011
1
1111111111011010
1111111111101010
1111111111100000
1111111111111010
1
0
