1111111111111100
1111111111111011
1111111111101111
1111111111110110
1
1111111111111110
1111111111110001
1111111111101001
100
0
1110
11
1011
1111111111110101
10001
1111111111101011
100
0
1111111111101110
110
110
1111111111111011
1111111111111010
110
1111111111111000
1100
1111111111110011
1111111111100001
1100
10100
10010
10
1111111111111011
1111111111101110
1111111111110101
0
1001
100
1111111111011101
1011111
11101
1111111111111111
1
1001110
11101101
1001110
1111111111110010
1111111111000111
110
1111111111100100
101
101
11101
1111111111101000
1001
1111111111110111
1111111111101100
10110
1111111111110010
100001
1110
1111111111110000
1111111111100100
1111111111011100
1111111110111110
1111111110010111
1111111101111000
1111111101011110
1111111001010000
1111110100111001
1111111000010101
1111110100001010
1111110110100101
1111111101001001
1111111101010011
1111110110011010
1111111000110011
1111111100010011
1111111111010110
1111111111101101
1111111111011011
10100
1111111111100100
1111111111011100
1111111111101111
1111111111011100
101
1111111111110001
1111111111110100
1111111110101010
1111111101101100
1111111100100100
1011110
11001111
111100000
110111001
111110110
10101011
1111111110010101
1111111001110001
1111111000100000
110001111
1001100000
1111111001001011
1011001010
1101100
1111110111010111
1111110111100001
1111110111000110
100111
10011
1111
110
0
11110
11100
1111111111001111
1111111100111010
1001010
100110100
101100100
1110111101
11000010111
11011001001
1001101101
100001
1101111010
10011010110
100000011
1111101110001000
10000000000
1000010110
1111111011001001
111010010
1111110100010111
1111110000111100
1111110111001111
1111111101010111
10000101
110
1111111111101111
1111111111111110
1111111111010011
10000011
1111111100011001
1111110011101101
1111111100000101
100001000
1111111110110101
1111111110010110
101111001
11000010101
1110111111
1011001101
10011110110
1111111100100010
11010001111
1100010010
10000011101
11011110000
1111110111
1101101100
10010000011
111001
100101001
11000100
1010010
110
1111111111111100
1
1111111111101111
100001110
10000000111
1100001100
10100010
1111111110001101
1111111000101011
1111011101
1100000000
1001001100
101110000
10101011100
1111111111011001
1011100001
1111111110101001
1000011
1000100
10001011011
10001000101
101
1010111111
1010010111
10111001011
1110010101
100010101
101010
1111111111110101
1011
1111111100011110
1111111110010111
1011101100
1011000101
1111111000000110
1111
111000011
1111111101000010
10100000
111011101
101001111
111110000
10100110100
1111111001100001
1010010011
1001011001
1000110101
10110100101
1111101001100100
1111111000111101
10100111011
10010110101
11011101111
11010101110
111111100
100000
1111111111110110
1111111111011101
1111110111011101
1111111010011110
111011001
1111111001111001
1111110000110101
1111111100011010
10111100
11111111
10000011011
1111110110010011
1100010
11010011100
1111111110000110
1111111110011101
1000001001
1101000101
1000001
10010010011
1111110010110000
11001000
100010000110
1111111110
11101011001
10000000001
100010110
1111111111100000
110
1111111110110010
1111110100010100
1111111101101011
10011001000
1111110010011000
1111111001010110
111111001
1011011001
1111110100011011
1111111001111110
100000000
110000
11101010010
1111110110111101
1100001
11100110101
1111111111111111
1110101100
1011100110
111011010
1110001001
1100110011
10011110110
100000001101
10110101110
1010010111
1000000
1111111111110000
1111111110000001
1111111010111000
1001111100
1011010000
1111111001011011
10000100011
1111111100111011
1101011
1111110111100000
111011000
111110111
1111010100
11010110
1111101110111001
10110011110
10110101111
11100110
111111000
1111110010110011
10100000001
10010110010
111000010
11010100111
101001000010
10111110011
1000000000
1111111111010101
100100
1111111111000001
1111111010101011
10001011
10000001
1111110011001110
1111110000100000
1111100110000001
10111011
1111110100101011
1111111111000100
111
110101111
10001011
1111111001100001
1111111111110001
11100110011
10011001110
1111110110010010
1111111001110101
1111110010001101
1111110100010000
1111110101111001
110001110
100110110100
10100011100
10010111
1111111111110010
1111111111101101
1111111111010000
1111111101000010
11010011
1111110000111010
1111100110110100
1111101101000000
1111111001110111
1111111010000100
1101110101
1111010000
1111111011010100
10100111100
10011011001
11000010101
101111000
1111111011100011
1011011001
1111110011011011
1111110000111001
1111110
1111101111110010
1111100000010010
1111101011101101
1111001001
10001011010
101000110
1111111111110011
1111111111111011
1111111111101000
1111111110000101
101010011
1111101001001110
1111101111110111
1001001011
1111111110001100
1111111101011100
1111111000110101
1111011111000000
1111111111110110
11011000110
100111110011
1110010100
101001110
1111110101111011
1111101001111011
1111111010010100
1111100111001100
1111100010001010
1111011000100000
1111011101010100
1111111101101111
10001111010
1101100011
11011100
10011001
1111111111110101
1100
1111111111001101
11101011
1111110010011011
1010001
1010100111
1111110111001110
1111101101111110
100000100
1111101111010111
1111111000111110
11000000001
10010100010
110000000
100000
1111110110011111
1111111001110111
1111101001000110
1111010011110101
1111100111110011
1111100101110101
1111011111001000
10001101
11000000010
110001110
11000101
1111111111010011
1111111111110110
11111
100101
1111111010101000
1111111001110110
1001111011
10011011
1111111110010000
110111011
111011
1111110101100000
110011101
110000001001
11101011111
1111111011110110
1111100000000111
1111110001001010
1111101001011001
1111111000101010
100010110
1111110011001001
1111111000010000
1111101100010101
10111101010
11110010000
1101010100
110000011
1111111111100000
10
11100
10010101
10100001
1111111000110101
1010000011
1111111000010100
1111110000111110
110010011
1111111010100100
100110010
10110001101
11101100101
1100101101
1111010100110010
1111011010001110
1111100001010101
10110011
1000000001
100100011
1111101010100001
11101101
1111111111101000
11110001010
10000000010
1111001000
1100011100
10010
1111111111110101
1111111111011101
1100011
1011100110
101111001
11000101110
111001
1111110000010011
1111111000000000
110111000
10011001000
101000010010
1111111101111001
1111110010010101
1111010001011110
1111011000010100
1111110101101110
1111110001011101
1111110111111110
10000010000
1100100100
1111111011011111
1111111101000000
1111111111
1111111111111001
1000101110
100011110
100000111
1111111111110010
1101
1111111111110001
110110101
100101001
10000111010
10001010000
10001100100
11010101011
101111111111
111101010011
110011101
1111101000001110
1111010001100101
1111110101101001
1111101000110010
1011001011
110101011
1111110001001101
11101111
1111111101001011
1111111110110011
11000110101
10111011110
11010001
1001111
1111111101101100
1111111111110000
1111111111110100
1111111111100111
1111111110110001
1011111111
1011101110
11000011101
1010110010
11001111100
110110111100
111000101011
100000100000
1111101101101011
1111011011100000
1111010000001011
1111100110001100
1111111010000000
1111111101001110
1111110110111110
11000110010
100101011
10111001101
10100000100
101000100100
100000011111
111101100
101111111
1100010
0
101011
1111111111100100
111111
10000110110
11000101101
11100011110
11100111001
101001010010
100110110000
11011101010
110101011
1111110111111010
1111011010000110
1111011010000010
1111010111100011
1111101101111111
1111101111110110
1111100100001111
10011010000
10100000110
10011010000
11110100000
11101001001
11100101010
1111111111101000
1111111111010010
1001000
1111111111010011
11
10000
100001000
10001011011
11100001110
11011011100
11111011000
101111000110
10011011
1011110100
1101100101
1111111110000000
1111110100011010
1111111110001110
1111100111001000
1111111010010101
1111101111011010
1111110001011000
1111111100100110
100010
1000011
10001001000
11010100110
10001111001
1111111111001111
1111111110101010
10101
1111
10110
100110
1110011
1010110100
101100110
100101101
11000101100
10100010101
1111111001111101
1101101001
10001001011
100001001011
10001011000
10011000
1111100110011110
1100100
1111111101001001
1111110100011110
1111110101100010
1111111110111101
11000
1011110010
11000011111
1100
1111111010100101
1111111101111011
10111
1000
1111111111101010
1111111111111101
10001110
1101000111
1110010010
1100111100
101101011
11010100000
101111011011
10110001110
100111101
11001010110
111110101
101000100
1010101
1111101
111011111
1111110111111011
1111110110100000
1111110110001101
1000111111
1111111010011101
101000
1111110100010001
1111111100011011
1111111111001001
1101
1011
1111111111110100
110
1010110
110111000
101100101
1111111111101011
1111111010111110
10111001011
1111111010000010
1010001110
101001001
100100111
11111011001
111110001
10111101110
1111111110101111
1111111000100010
1111101100100111
1111101110010010
1111110010101011
1111110010010011
1111101010010001
1111110110101010
1111110110101010
111
1111111111110110
0
0
11000
1111111111110010
1010
1111111110110111
1111111010100101
10111000
1111111100101110
1111111010101000
1111111000100010
1111111000111001
110011101
101100100
100001011
10110001
1111101100111111
1111111001010111
100110000
1010111
1111111110110110
1111111101010011
1111110000110100
1111110100100001
1111111100110001
1111111011111011
1001101
0
1111111111110001
11
1111111111110100
1111111111101001
110
1111111111100110
1111111111100010
1001101
1111111010011100
1111110110011011
1111110101111101
1111110001110011
1111110111000110
1111110101001101
1111110011010110
1111111101111111
1111101110110010
1111111000001111
11000010
1111111010010111
1111111000010100
1111111011011011
1111111100100111
1111110110100001
1111111010100100
10011
1111111111011010
1111111111111001
1000
1111111111111111
1111111111111001
10111
1111111111101100
1111111111110110
1111111111011110
1111111111111110
1111111111100110
1111111111000010
1111111111100010
1111111111011010
1111111111100110
1111111111011000
1111111101010111
1111111100010010
1111111011000011
1111111101100101
1111111101101001
1111111100001011
1111111011100010
1111110111101101
1111111010110101
1111111001101011
1111111001010010
1111111111010000
1111111111111001
1000
1111111111110111
10100
