10111
10010
11001
1111111111111101
1111111111110000
1011
1111111111111001
101101
110
1111111111100010
111
101001
1111111111010111
1111111110111001
10001
1111111111100011
1111111111111101
1111111111111010
10100
1111111111111111
1111111111011110
100111
100001
1111111111011011
1111111111100000
1111111111110110
1111111111100011
1111111111011101
1111111111111101
1111111111110001
1111111111011110
10001
1111111111111111
1111111111011110
101000
1111111111101010
1111111111010100
1111111111001100
1111111111000010
1111111101001111
1111111011000101
1111111101110000
1111111111110101
1111111111000000
1111111010011000
1111111101011000
1111111110111101
1111111111001101
1111111111011111
1111111111101111
1111111111101000
1111111111001011
1111111111101000
1111111111111001
11
11000
1111111111101001
10111
100110
1111111111110100
1111111111100001
1111111111110010
1111111111011001
1111111101110100
1111111101001010
1111111101010000
1111111010000111
1111111001110001
1111110111100100
1111111010110001
1111111000011010
1111111000000000
1111110011111000
1111110111010101
1111111101101111
11111
1101100
1111111111110101
1111111111000100
1111111110110010
10
1111111111111000
1111111111110001
1111111111111011
1111111111111110
1111111111100001
11000
1111111111010101
1111111111101011
1111111110101101
1111111110011110
1111111000010000
1111110110000101
1111110110011010
1111111001010101
1111110111001111
1111110010010000
1111110101100101
1111110110100101
1111110010100111
1111111000000000
1111111101100101
1111010001
1000110110
1111111010101011
1010001011
1111111100
101101011
1111111111000110
1111111100000100
1111111111001011
1111111111101000
1111
10
1
1111111111010111
1111111111110000
1111111110011011
1111111011100011
1111111000011111
1111110111010001
1111111110111110
1111110011101101
1111101100010111
1111110001011001
1111110010010011
11011010
1111110000100111
1111101111
101011101
1111111101101001
1111111010001001
100000111
1111100100
111101010
1010010111
100011110
1111111100000010
1111111110010101
1110
11111
1111111111110100
1111111111111100
1111111111001011
1111111110001100
1111111101000011
1111111010010101
1111110010100010
1111101011011011
1111110111101100
1111101111001100
1111111001100110
1111110001101011
1111101000
1111111001
1010101010
1111111011001000
1111111111111011
1111110101000111
1111111010001101
101111101
100101
1101000100
1111111110110110
1111111110111011
1111111011100011
11111
100010
1111111111111001
1111111111110001
1111111110111000
1111111101000011
1111111000011000
1111110100111100
1111110011010111
1111101001010001
1111111101001100
1111111010111100
1111111000111101
1111110100011101
1111110111100010
1111101101101010
1111110100000011
1111111101011100
1111111101001001
1100110000
1111110101001001
1000100000
11001000001
1111110101010001
11001111
1010001001
1111110011100011
10010100
1111111111111010
1001101
1001
1
1111111110100000
1111111011100110
1111110101000011
1111110010011011
1111110000101011
1111101000010001
101001000
1111111110001000
1111111000111111
1111101101100010
1111110110010111
1111111010100101
1111111100000111
1101011
1111111101001001
1111111001011100
1111110111111010
1111111110100100
10010000001
111000111
111001011
101101001
1111110010111011
1111111101001110
1111111111000001
11000
1000
1111111111100010
1111111110110101
1111111100100111
1111101100011101
1111101000111111
1111110000111100
1111110010011010
1111101111000000
1111100101101101
1111110010011001
1111111001010101
1110110000
1001011100
1111100100100011
1111110010010001
1111101011010001
1111010000
1111111111110100
1111101101011110
1111110010101111
1111111100110000
1111111010100000
11101
1111110101111110
1111110110111110
11111001
101110
1111111111110111
1000
1111111110000010
1111111111100010
1111100110110100
1111100111001110
1111110001110001
1111101110001110
1111111000111100
1111110111110010
101001
10010100010
1111110110101011
1111110010100110
1111011010000011
1111100000111101
1111101101100100
1111101000011110
1111100111010000
1111101111101111
1111110011010000
1101111110
100100010
1010010001
111010100
1000001001
101100000
100111
1111111111111000
10000
1111111101101011
1111111101101000
1111111101001101
1111110101110110
10101101
1111111111100010
10000111100
100011010
1010111010
101011101
11001010110
1010110000
100111110
1111111010111011
1111101011001111
1111101011100000
1111111110110110
1011101111
101
1111111100110001
1111111111001001
10110011110
1000101011
1000111100
1111111110111011
1111111111111001
101111
11001
1111111111110111
1001001
110010110
11000100100
10011100100
101110011000
1011001001
10101100100
10111011011
100010100011
100111100011
101111001110
111001011000
10010101001
10011000000
1111111101110101
10001101101
10111110101
10101000001
1111111110010010
101111100
10010001110
11001000001
1001100100
1110110
100
1111111111111111
1111111111100100
110011
110101110
1001001000
11001001000
11110011111
11001010100
1010111000
100000101111
10100000011
11010000100
1101110100
100011010111
100100101100
11001111011
1100001000
10101001011
1101010000
10101101011
10000100010
1111010111
11110
1010101110
1101000110
1111111110101000
100000011
0
1111111111101110
1111111111111101
1111111111110011
100111011
10011001001
1101011000
11101110001
11110110110
1100001011
1100010000
1111110100011101
1110010000
1111011111
10001011000
11111010
10010111111
11100001100
1100001100
100001010
1111111001111000
1111111111010001
1111110100000101
1111111011110001
1111110110110011
1111111011100101
1111111101100010
11100001
1111111111101001
1111111111110110
1111111111110111
1111111110010101
11111110
10010011100
101100001
1011000000
110000100
1011001100
111000100
10011010
1011101100
1111110110011101
10101100001
1100000000
1111111111100010
1110100010
1100101011
1111110010110011
1111111000001110
1111100100111001
1111011100110011
1111110010111011
1111101000111010
1111101011101011
1111111101000101
10000101
1111111111010001
1111111111111000
1111111111000010
1111111101011000
101011101
1111111110000101
1111110100010000
1111110111100010
1111111101000101
100111100101
100101000
111101001
1011011110
1011000101
11100011000
101100100110
110010101
1111111110
11011001101
1111111111000010
10011100
1111101001101001
1111110000110111
1111110000101101
1111100111011110
1111100011000011
1010010
1010101111
11
1010
1111111111101111
1111111101100010
10000111
1111111100010010
1111111110000101
1111110110000110
1111110110110100
1110111011
111101010
1000010100
1111111001101000
1000010101
1010111110
10001011011
100001111
10110010111
1111111111001010
1011101
1111100101111000
1111100000110000
1111101100011010
1111110100010101
1111110111001111
1111101101000010
1000011
100010011
10
1111111111111011
1111111111111100
1111111110111000
1111111100011010
1111111101111101
1111111111100001
1001000010
101101100
1111111011110111
10111011000
1001000001
100100011100
10101100011
100010110100
10010110000
1011010111
1111111110111000
1111010011110001
1111011100100010
1111100101010001
1111110011101100
1111101001111010
1111100111001000
1111111000011001
1111111001010000
1111110100110011
1111111111101110
1111111111110011
1111111111101001
1111111111111111
11001
1111111100000010
1111110100111110
1011100011
1011000110
10010111000
1111111110001101
10000010110
1001110100
100010110000
10101101000
11101111100
111111001
1111101000100110
1111010000100011
1111011011111000
1111111001101100
1111101101001110
1011111001
1111111001110111
1111110010110100
1000000010
110000101
1111111111001010
1111111111010000
1000000
11101
1111111111001111
10000
1111111011101001
1111101111001101
11000110
1111111100000111
1111111101110010
1111101111100100
1111111110111100
1111111110011000
1111100000101110
1111011001010110
1111010110001001
1111001111000111
1111011000001101
1111100101110101
1111101110101001
1111111100001110
1111110110111100
1001001
1100001
1011111100
10101100100
110110101
10001000
100
10101
1111111111011001
1111111110110010
1111111111010100
1111110100101010
1111101111000000
1111110101101000
1111110010001010
1111110010000011
1111101001001000
1111011111100101
1111010101101100
1111010110101011
1111000111111111
1111000111011110
1111100001101110
1111101000100011
1111110000111100
1000100
1111111001000010
1110100
1101111
1101000001
101111101
1100100010
1010110010
100000010
1111111111101001
10001
11110
10
1111111111000110
1111110010001010
1111110011100001
1111111001010001
1111110011101101
1111110000011111
1111100110001100
1111101011110110
1111011101111101
1111111011100111
11100000
1101100000
1111110101000110
1111101010011100
1111110110101000
111110
1111111101101100
1111110100010110
10010000
10110001001
1010111110
1011000110
1001011110
110001100
1111111100000111
10001
1111111111111010
10111
1111111111101011
1111111010000010
1111110110101100
1111111010101111
1111111111110010
1111110110010010
1111110101101111
1111111110110000
1111000010
1111110011
101010101
1111111010101000
1111110111011001
1111101100000110
1111111000000010
1100110000
10001001010
1111111001000110
1110111001
10110001000
1010100001
1001100011
100100001
11010101
1111111111001011
101
1111111111110011
1111111111111000
1111111111010101
1111111100100000
1111110010010110
1111100110001001
1111100110011001
1111100100001000
1111110111010110
1111110001011111
1111110110011001
1111100100000001
1111111011011011
1111110011101001
1111111100011000
11111
10100000000
1011000011
100001101
10000100011
10100100000
1110010110
1011111010
1001011001
111001
1111111110110000
1100
1111111111011101
11000
1000
1111111111101111
1111111010100001
1111110010010011
1111100111010000
1111110000110001
1111110101110111
101100110
1111111000011001
1111111010111111
100100110
1001111011
1111100111100001
1111101100110100
1111101111111100
1111101100010110
1111101001110111
1111111110111101
10100000010
111001000
1110011001
1001011101
1010110100
11000010
1111111111111001
100
1111111111100101
1111111111111010
100001
1111111111101001
1111111101110110
1111111010000101
1111111101010010
11110110
1111111100110011
110111
1111110010011010
1111101000110111
1111101001011101
1111110000011110
1111110011101000
11101110
1111111000010001
1111101100010100
1111110010011011
1111101110101101
1111111011000000
110000
1001111111
11001001
11001010
1111
1111111111111100
100000
10000
11001
1111111111101000
1111111111111000
100010
100000
10100000
10110010
1101011
0
10010110
1111111010110111
1111111011111110
1111111110001100
1111110010101100
1111111011001001
1111111001111110
1111110110101111
11010110
1111111100110001
1111110101111101
1111111100100010
11101010
10010001
101
111
1001
1111111111111011
1111111111110001
10000
1111111111111100
10011
0
1111111111101011
1110
1111111111111010
11
1111
1111111111101011
1111111111100000
11000
1111111111010010
1111111110001101
1111111101110010
1111111101001111
1111111101000101
1111111110011011
1111111111101111
1111111111001111
1111111111110001
10110
11010101
1011
10010
1111111111101001
1111111111110001
10
