1111111111110110
101110
11110
1111111111010110
1111111111101111
1010
1111111111111110
1111111111111011
1111111111110001
1111111111111110
1111111111101100
10011
1100
101001
10101
1111111111101001
1111111111110110
1111111111011001
1111111111101101
0
1111111111111100
1111111111101011
11101
1111111111110010
11010
11010
101
1111111111101001
1110
1111111111110101
10110
1111111111111100
1111111111111101
10101
1011100
100011100
111110000
10000110
1010111
1111111111110100
1111111111100001
101000
1111111111111011
1111111110111001
1111111011110011
1111111110011001
1100001
10101111
10001110
101110
11000111
100000110
1111111111100101
1111111111101100
1011
1111111111101101
1111111111101001
1111111111010010
1001
10010
11110
10001
100000011
1000111100
1111011111
10001101000
11001010101
10010111001
1111001101
10010011011
10000000101
110010010
111010110
11111101
1111111101001101
11110001
110110000
1011000000
1001101000
111010100
101101
10011
1111111111111101
11010
101
110
1111111111011111
110000
110101
10100100
10000001011
11010010101
100010011011
101101011111
101010001101
100111000110
11110010110
10100110010
1111111111100000
10000001
1000111011
1111111101000101
1111110100010011
101000111
1111111111110100
1111111101010100
1101101011
10001000000
1010111110
1111111111100010
1011110
1111111111110000
1111111111111110
100100
1111111111110010
1111111111001010
1111111111100110
1010111100
10001111001
11010011111
11011000101
100001110011
100101000101
1111101111110100
1111110101110011
1101111001
1111111010011100
1111111101011100
11010
1111110010000000
1111110101000111
11011010001
10010100010
1000
1111111101111000
1111111100001101
1111110011011000
10111
1
101000
1011
1111111111101111
110
1111111110110101
1111111111101010
11000011
1111110111110111
11001101
1111111111111000
1000101
1111101000
1111101011001011
1101001
1001001010
1111111101100100
1111100000
1111110111111101
1111111001110010
1111111100101111
10110001011
1110010001
1011100000
1111110101000011
1111111110010100
1111111110100011
1111110111101011
10001011
101000
1111111111111100
1111111111110111
1111111110111000
1111111100100000
1111111010000000
1111101001111001
1111110000101111
1111110010010111
1111010101100100
1111100110110011
1111110101010000
1111100110
1111110011001111
1111110110001001
101011110
1111111001101000
1111110100001010
1111011111000111
1111110101101100
1111100011100000
1111100100011011
1111111100101101
1111101010101011
1111100010110001
1111101011001011
1111101111110110
1111111110111100
10110
1111111111110011
1
1111111101110100
1111110110101011
1111110011000001
1111101011011010
1111100101101000
1111111000001111
1111100100011111
1111100001010100
1111111001011010
10101110011
1111111101111001
1111100011011010
1010000101
10000000111
10001111
1111110100011101
10110
1111101000111111
1111100011010011
1111110001000100
1111101000010111
1111010111001110
1111110001001110
1111110101111011
1111111111001001
1111111111000110
1110
10110
1111111110000000
1111110100011001
1111101010111111
1111110000010011
1111111010000111
1111111101100000
1111101001111100
1111101111111101
1111110111000100
1111110111000000
1010101101
1011
1111101111110011
1100010111
1111101110011100
1000000100
1111010100101010
1111011100000011
1111010110010010
1111010001000111
1111001111101000
1111010010101101
1111100001100000
1111110000001111
1111110100010010
1111111101111010
11100
1111111111110000
1111111110001100
1111110001001011
1111101100011010
1111111011010100
1111101111111111
10100110
1111101001011000
1111101110001101
1111011101010100
1111101010010101
10001000001
100101101
110001000
1111000000
1111110101010011
1111100000000011
1111010110100110
1111001001110010
1111100111101111
1111011100110011
1111011111001001
1111010100010111
1111011001010001
1111100111011101
1111110100010110
10110100
1000
110110
1111111100111111
1111101011111101
1111101010111000
1010010
1111111010011001
1111111011111011
1111111000111111
1111110011111111
1111110010010101
1111101100010011
1111111100011000
11011010100
1000011001
1111111010001011
1111111100100101
1111110010110001
1111010110111111
1111000111010011
1111111011010101
1111101001011011
1111101000000010
1111101001111111
1111011111011001
1111101000100010
1111110111111111
1111111101000010
1111111111111011
111
1111111111101101
1111101111101000
1111110101010111
1111111101110001
1111110001100110
1111110111110100
1111100101011110
1111110000110001
1111110111111010
1111101010010101
1111111100010111
1111111111100101
11110010001
1111110001011000
1111011110
1111111001101110
1111111001111100
1111111000101110
1111110101100001
1001001011
1111101110010000
1111110100010111
1111100110111001
1111101110111011
1111101111001100
1111111101000000
1000
1111
1111111110000101
1111110111100110
1111101111111101
1111110111011011
1111101111101100
1111110101001010
1111111100000100
1111101011001110
1111110110110011
1111110110111000
1111100111001011
1111011101010110
11000110010
110111000
1001011100
1111101001011011
10000001110
1111110000011001
1010000011
1000000011
1100100
1011110000
110011000
1111111001110101
1111101101100101
1111111111011110
1111111111111100
1111111111110001
1111111111100101
1111111101011111
1111110000111111
1111100111110011
1111110101000011
1111110000000011
1111110011000110
1111011100011111
1111111110111000
1111100110101011
1111100010000101
110010101
100101110001
11001101
1111010000
101101001
1111101111100001
1101100111
1111111010000011
10101001
1111111001101010
110101001000
100110110011
1000101
1111111101101011
11000011
100001
110
1111111111111100
1110111
1111110011010111
1111110000011011
1111110001111111
1111101101000011
110011101
1111111111001001
1001100011
1111111100000010
1111110111100110
1111100101010101
10111001011
1111110010001001
10100001101
1111100001111100
1101101100
1111100100101100
1111100101111001
100111100
1111111011100000
100101001111
1001100001
10000110011
100000110
101010
1100
1111111111111111
11000
1010111
1111110101110111
1111111101010101
1010111110
1110110001
1010111
1110100111
1111111011101111
10010000
111100010
10000100001
1110000011
1111101101101010
11001010
100010110
1111111110001100
1110010000
1101100000
11000010110
10100001111
1001100110
100011011
11110100011
10101011
1111
10011
1111111111011110
1000100
10011101
1111111110110110
1010010101
11001100110
11000011
1111111110011011
100110101111
1111001111
1100101010
1111110110100000
10110010010
11100110111
1111100111001000
1111111100110000
1111111110001010
10111110
10010101001
110110110
1001100101
11110101
11010000001
10101011101
100000001100
10010011110
11101
10100
1111111111101000
1111111111111011
100011
110101
1111111000111110
10010101
1000101100
1000100000
1111110000101000
11010111111
1111001100
11111100
1111110111110000
11110000010
100110
1111101011010010
1111111000100110
111001100
0
1111111011100001
1111110100110110
1111111000110010
1111111010001111
1111111000100111
11001111010
110011101
1111111111100010
1111111111011110
1111111111110101
1111
10011
1111111110101010
1111110011010110
1111111000101001
11111010
11100000010
1011011011
1111111111001001
1111110010011101
100101000110
1100001011
11101100111
10111010001
1000001100
1111111010111111
100111110
1010000001
1111111111101010
1111111100001111
1111111011000101
1111111101110100
1101001001
10000110011
1111111111010001
10110110
1111111111110111
1111111111101110
1111111111000010
1000100
1111111101011100
1111110001110100
1111111001001101
10001000
1111111010010101
1111101100
1111110000100110
110100101110
100101101111
10100001001
1111101101011000
11000110101
100101011
110011
100011100
1011000110
10010111110
1111111111010101
1001101100
10011111001
111100
111000011
11010000
1010110
1111111111001111
1111111110101100
1111111110101101
1111110
1111111110010100
1111111111001101
1111111000000001
1111110111010011
1111101100011100
10101100101
10101001001
11000110000
101111011
110011101
1111010100
1010101111
10110100100
10001111000
100010100110
1001000110
10101100010
1101001001
10010010001
1000011101
1111111101110101
1111111011011011
1110110
1111111111100111
1111111111110101
10011
0
10010111
1111111110101000
1101100
1111111100000011
111111110
1111111011000111
10000011101
100111011001
11101011
10110001
1111101110
101011100
111100010
1101000110
1011000101
10000001010
1110000000
1101100
1111101001011100
1111111111110101
1001001111
110000101
1001100100
1100010
1111111111110100
11101
1001
1111111111101101
1000000
101101111
1010111110
1111110011010110
110001000
1011001011
10111000
11001100110
1111110100001101
100111110
1001100111
100110
11001001110
11011101
1111110100100000
1111111000000111
1111111110000001
1100001101
1111111100101011
1111110000110010
1111110011011101
1111111100010011
111101111
11000
1010
0
10110
1111111111100110
1111111111101001
1111111101010000
1011111
1111111000101100
1111101111111000
10100000
111000
1111110001010111
1111111001010101
1111111010101101
1111011001110100
1111101011110000
1111111001101000
1111111010111110
1111101110111010
1111100010011111
1111110001001001
111010110
1111111010011101
1111111000001001
1111110111011000
1111111100101101
101110
100
1111111111101110
1111111111110011
11
10100
1110
1111111111001011
1111111101000100
1111111100010010
1111110010100011
1111111010001001
1111111110011111
101001
1111110100101100
1111110001110110
1111011110000100
1111100001010100
1111011100000100
1111011111100000
1111101000111111
1111100001110001
1111011101110110
1111101000100000
1111111000111110
1111110110011011
1111111001010110
1000100011
1000100011
10101001
11
1111111111110011
1011
1111111111010111
11000
1111111111100111
1111111111100101
100000
1111111001011011
1111101011100000
1111101001111000
1111101000010000
1111110011010000
1111110100011100
1111100010100010
1111011110001100
1111010001110000
1111011101001111
1111101001100101
1111100100100100
1111100000101100
1111101101000011
1111110111111110
1111111011011010
1111111110000011
110
10010100
10010101
1111111111110101
1111111111010011
1111111111110011
100001
1111111111111100
1001
1111111111100101
1111111110101010
1111111100111001
1111111110000110
1111111111010010
1111111100011001
1111111001110110
1111110100010010
1111110001000001
1111110000001101
1111110110111010
1111111011000101
1111111101111100
1111111001100101
1111111011100010
1111111100101101
1111111110101111
1111111111101101
101
1111111111111010
1111111111101110
0
1111111111101111
11
1111111111111101
11001
1111111111101000
1111111111110100
100101
1111111111101000
0
1111111111111101
1011
1111111111010100
11
1111111111100011
1111111111110111
1111111110000011
1111111111111000
1111111111100111
1111111110110010
1111111011101100
1111111111101110
1111111111101100
1101
1111111111100111
1111111111010111
1111111111111111
1001
1000
1111111111111111
