1111111111100111
1111111111111010
1111111111101000
111
10100
1111111111101110
1000
1111
1111111111101010
11001
10
0
1111111111111000
111
1111111111011011
1111111111111100
1111111111100101
100
11
100000
10
1111111111110111
1111111111110101
111
111
10100
10000
10000
1111111111100011
101000
1000
10000
1111111111111101
11000
1010001
11101000
100111010
1000100
101110
110000
111000
10000
1111111111101010
1111
101111
1111111111111110
100101
11011
101
10111
1101000
1101001
1101
11
1111111111110000
0
101
1000
0
1111111111110001
10010
1001
1010110
11011001
101110011
10110100
100011000
100110
1111111110010000
1111111100011000
1111111101000011
1111111010111110
1111111010010011
1111111011010110
11101001
1111111110100101
100100
1001101
111100
1011001
1110
1111111111111100
1111111111101000
1111111111100111
1010
111
1111111111110111
1111111111100001
1111111111101001
101010111
110011101
1000011001
1011111110
111101100
1111111110110001
10100111
1111111011000110
1111111100000011
1111111010011000
1111110010001001
10101000
1101100111
1111111100010110
1111110000001001
1111110111100111
1111101111101110
1111111000011111
1111111100011101
1111111100110001
1111111111101100
1111111111111110
1111111111101000
1111111111111001
1111
1111111111101101
10010
1010101
111100100
1011101010
110001000
1011011001
1110111111
1011001011
111111010
1111111110110110
1101111111
1010011001
1111111101000011
1111111010000001
1111111010100000
1111101000100110
1111100111100101
1111101110110101
1111100111111100
1111101010000011
1111101111111100
1111111101001001
1111111110110111
1111111111111110
11100
1111111111111100
1111111111100100
10101
110111
110111001
1000011010
1010110010
1111110111011100
1100
1111111101110001
1111100101010010
1111100100101101
1111111001101000
1111111000000111
100011101101
11110011101
111010010
1111101111110001
1111110110000110
1111101010010011
110100010
1111111100011110
1111100010010010
1111100101000000
110010101
100100001
1110001
10101
1111111111111001
111
1111111111001000
1010100
11101000
1111111110101111
1111111111001011
1111110001000011
1111111010000111
1111111011100010
1111110111111111
1111101111110101
1111101010011001
1010010100
101011110010
111001100111
111000000
1111110001111100
1111101101110100
1111100100001011
1111111111100111
100010
1111110001000111
1111101111110101
1111111000100010
1111111001000110
1111111100111000
10010
1111111111111100
0
1100010
0
1100100110
1111110110100110
1111110110010001
1111110000010101
1111111011011000
1111100010011111
1111011111111011
1111100101100100
1111100111100010
100010
110011101101
101001111100
1111101101011001
1111110100000101
1111111100011101
1111101100111100
1111101001110010
1111101000010011
1111110010010110
1111110010111110
1111100110111001
1111110011111111
1111111111001111
101000
1111111111011001
1111111111101100
1111111110000101
1111111110011101
10001000100
1111111001111101
1101111011
11001011
1100101
100110
1111100000011101
1111011110010100
1111011010001111
1001001100
101100000001
1100100001
1111111111101101
1100000
1111101100000100
11010001
1111110011011010
1111101001010100
1111110111000000
1111101011101101
1111011100001111
1111111000110101
110011111
100011001
10100
1111111111011000
1111111101110010
1111111101110011
1000001
110110
1111111111010110
1111111111011101
1111111001110010
1111110111111100
1111110011010001
1111011100110011
1111000111001111
1001111101
1101010011010
1100100110
1111111011101101
111010011
110010100
101100101010
11110011000
1111111111111011
1111001010
1110010110
1111111100100000
11011000
10100001
10011
1010
1111111111000111
1111111110010011
1111111111110111
1111110100010101
1111111001000011
1011100001
1111111100010010
1111110010011001
1111110000000001
110000
1111101001000000
1111011100000100
110011001101
1100110011011
1010101011
1110101101
1100110001
10001001111
10101011110
1001011011
10000110111
10011001001
100110110011
1011110111
1111111100100011
1111111110101010
0
1001
1111111111101110
1111111100110100
1000110
1111111101110010
111110010
1111111100111010
100010000
1111110100000100
1000010
1111011100110010
1111101001111110
1111101100011100
1000010011101
1010000011010
10000101000
1111101010001000
1111111111010010
1100100000
100001
1001000010
1101111001
11001110010
10111011001
100000100010
1000001111
10000010
1111111111100000
1111111111100011
1111111111101011
1111111101001111
1111111011111001
1011100
101101001
1111111011100110
100011100
1111110110101010
1111111010111011
1111011101100100
1111100000111110
1111111100101101
1001000010010
110111001001
11000001
1010110
1111111111101100
101000001
10010010110
1111111011001000
111111010
1111110101100010
101100110
10000000011
1010111001
1001000
1111111111111100
101110
11
1111111110111111
1111111011011100
1111110001001111
1111101100101110
1111110111110110
1111110100101101
1111101000100101
10101001
1111111101101001
11100101
10100111101
11101111010
1001110111
10001001
101000011010
100110100
110100001
10010010111
111001000
1111111000011011
1111100001110011
1111111110101101
1111110110101100
100011101
1111111111111100
1
1111111111110011
11111
0
1111111101110010
1111101001111010
1111101000010001
1111111011000111
1111110010111001
1111110101111011
1111111011110100
1111111101111001
10010000001
11010001010
100110000000
10011101100
10
10111110
101100000
1101001010
1111110101100001
1111110111100111
10010001111
1111111010010110
10111010
1111110000001001
101011101
1101100
1111111111110110
1111111111110101
1001110
1111111111100111
1111110110110001
1111110110011010
1111110110100111
1111110101100011
1111111100100111
1010010000
10011010011
1111111111001010
101110111
1010110100
100000000000
11100110010
10001010101
10001110
100010011
111010110
1000111001
10000010
1111110101001000
111011
1111111100011000
1010011101
1011001011
10001111
100
1111111111111101
111101
10010011
1111111011101011
1001000101
110011111
1001111001
101111100
1111111100011101
10010111
1011100111
10101110000
1010000010
11100001000
1000010011
1111111011101110
1100101000
10000111100
1100111
1
1111111111100001
1111011110001110
1111111111010100
1111111100001001
1111111101000001
10111000
1110100
1111111111110011
1111111111100001
10000
11000100
1010000
100011111
1101101101
1010001111
1101101001
11110001
1111111111111110
1010001110
1111110111011011
10001010101
101010011100
101000101
110000010
1000000110
11001111
1111101001001110
1111110010011000
11011001
1111110011000111
100100
10111011
1111111100000101
1011100
1000101
101110
1111111111110110
1111111111010011
1111111
110010
1101000
10011010001
1111111111000110
1111101011101001
1111111101111110
1111111110001111
1001001001
10111101111
101011110000
11010001111
1111101100111110
11111011000
101010
1111110111001110
1111101111000010
1111101001010011
1111110101101101
1111101101101111
10000111011
1111111011110100
1111111010101001
1110001
1100101
11101
11001
1111111111101101
1111110111010001
1111110010011101
10000111
10000000001
1111110000110001
1111111000000011
1111111110100110
100100000
1001101110
1010001110
10010000111
1111010001
1111101000011001
1100000
110100110
1111111100111111
1111111011010011
1111110010010111
1111110100111011
1111111011010011
10000110
110001000
1111110010110100
1111111110000110
110111
10110
100001
1011
1111111000100001
1111110100001010
1111111111011111
1000
1111000010
10010110101
10010011000
1111011
11101001000
10010010010
1111111000000100
1111101010010011
1111111101000011
1111101100111001
1111110011001100
1111110000110000
110011
1111110010111110
1011011000
110110010
1111110110111000
1111111000101000
1111110110011100
10101100
1111111111111010
1010
10010
1111111111110011
1111111110000000
1100100
1111110101111010
1111101111100101
100110010
110001110
1111101010001101
10101111011
1111110111101000
1111011110001001
1111110000010101
1111111000100100
1010
1111011101010101
1111110001011101
1111111110000001
1111
1111111011111010
1111100110101100
1111011000001000
1111110101000000
1111101100111100
1111110101001100
1111111110100101
111
1
1111111111111110
1111111111111100
1111111101111001
11110110
11001000
1111111001100110
10101101101
1010110011
110010111
10010111101
1111110111100101
1111110011010001
1111111110110011
1111101100111111
1111110101000000
1111110011111010
1111111100010100
1110011010
1111101110101111
1111110010000111
1111110111001111
1111100001110000
1111110011100011
1111110011101101
110101111
10001110
10
1111111111111100
1111111111101001
10000
10010101
10001000
11111
1111111110001010
100110000
10000100110
10101010100
10001001111
10100011
1010001111
1111110011001000
1111110011000001
1111111000000000
1111110011000011
1111100101000111
1111101110011100
10001001111
1111111101101100
1111111111011100
11111001
101011110
1010100011
1011000111
110010
110
1111111111111001
1111111111100100
1111111111111110
1100111
10101010
100111010
1110000
1010111001
1011001100
110001101
1111111101100100
1111110010111101
1111101001100010
1111110000110111
1111011101011011
1010011111
1111110001111111
1111110000001101
1111100111000011
1111101100101000
11011101
1111011000
1000101101
101000
101101100
1111111111110110
101010
1111111111101000
1111
1000
1
11010
11100
10011010
100101011
111001111
1010010011
1001111101
1111111101000010
11110011
1111110111011110
1111100101111001
1111101110010100
101001000
1111110000001110
100010000
1111110101110010
1111110011101110
1100010001
1111010100
101111100
1111111011100100
1111111101110101
1111111011000110
1111111111011110
1111111111110000
1111111111111011
1111111111111111
11011
0
1111111111111000
1111111111111111
110000
1000
1111111101100011
1111111000111111
1111111000110101
11011111
1011111010
111001110
110100100
1001111011
1111110100001101
10110
111110110
1111111111010111
1111110001010101
1001
1111111111101111
1111111110010000
1000101
100
1111
1111111111110111
1111111111110110
1111111111111110
1111111111101011
1111111111111001
1111111111111010
1111111111111110
1111111111110100
11000
10011
10100
1111
1111111110101111
1111111111100111
1111111111001100
1111111110111010
11000011
101011100
110111
1111111110110001
1111111111110101
1111111111000111
1111111111101100
111011
0
1111111111010000
1000
1101
1
1111111111110010
