1111111111111101
1111111111101111
1000
101
1111111111111011
1111111111101110
1111111111011101
1
1111111111100100
1111111111101101
1111111111100111
1111111111101111
10000
100001
101010
1111111111111100
1010
1111111111111011
1111111111111111
1111111111101111
1100
11
1111111111011001
1010
1111111111110011
11010
1111111111110110
1111111111111101
1111111111111110
100100
110000
1110
1111111111111001
1111111111110101
0
1111111111111110
11100
100111
10011
1000111
101110
0
100111
101110
100100010
1001001
1111111111110001
110111
110001
1111111111111110
1101
100101
101
100000
1111111111101010
11111
1100
1111111111100011
1
1101
11100
1
110
101
111110
10000111
10111001
11100101
100000000
11110110
100010110
1111111110110101
1111111000110100
1111111011110111
1111111111110010
1111111111010111
11001010
100101000
10110101
1101001
101110
1000
1111111111111001
0
1111111111111001
100010
1100
1111111111001110
10010
11011
100101
10010
1111111111111001
111010110
1100110100
10001110001
111001011
1110111111
1111000111
1111111011000111
1111110100100000
1111110000010100
1111110001111100
1111110011000111
1111110001001100
100111010
111111110
100010100
10100100
110011
11001
10001
1
11011
10010
10001
1111111110110101
1111111110000100
11001011
1111111011110100
1111110110011011
1111111111100001
1110100
1110011110
1100110
10011110
10110011
1111111011101001
1111100110010000
1110101
1111111110100011
100100101
1001000
111000010
111000010
1100010110
110011010
10111100
1010
100001
100
101
1111111111110110
1111111111110111
1111111110000010
1111111010100011
1111111011010001
1111111010111001
1000101111
10010010111
1100101110
100101100100
100011010100
11110001001
1010110011
10001001101
1100010
1111110101101001
1111101110011011
1111110100010100
1111110101011010
1111110101011011
1111111011010111
111110000
100011000
111001010
10100011
10100
1111111111110111
1111111111111010
1111111111001000
1111111100010001
1111110001000100
1111101111110010
11110100
1111000
1110001000
1111111001100111
1111110001100001
11100100111
101101010001
1100100101
1111111011000101
1111111000001011
1111101111010110
110001000
1111101110100011
1111111111111100
1111101001000010
1111111
1010010
10010101
111011011
1010011010
1100101
101110
1100
1111111101010001
10111110
1111111001011011
1111110100101001
1111110011001110
100001
1111110011010100
1111111101101101
1111110000101111
1011111010
1001000111
11000011011
100110110111
100010010
1111111100010001
1111110110001001
1111110010100010
1111111100001001
1111100111010110
1111110011100101
1111111000010110
111001111
1000100110
100101011
110101011
100001
100101
10110
1111111111111111
101101011
1111111111100000
1111111100111110
10111000
11100111100
111010110
1001110110
10011010101
110010111
1000101100
111001111
10101101001
100100010111
110000001
1111110000001010
1111101000010100
1111101010111001
1111101100001110
1111110100011001
1111111001100101
111000110
1010100110
100000000
1111111100010111
1111111111000011
10101
1111111111110011
1000111
10111010
1111111111010000
1111111001011000
110011100
111000001
1111101100000011
1111100000111100
1111110010010001
1111111000011001
1111111111011000
100101100
100100100010
100010100101
1011111001
1111011101000101
1111110001001010
1111111000001101
1111110001001010
1111110101010011
10100100
111011001
100010110
1111111111001100
1111111101001110
1111111110010101
1111111111101100
1111111111111110
111100
10100010
1111111000110011
1111111101011001
1111111010001110
1111111001011111
1111110111101010
1111110100100110
1001110011
10110001011
100010001110
110110100101
101111001111
11001100110
1111111001001101
1111101101011000
1111101101010011
1111111011001011
1111101101011101
1111111101110000
1010000111
1111110001
11000001
1111110101001000
1111111000000011
1111111111010001
1111111111111001
1111111111110011
1111
11101000
101001001
10000001
101101110
111000010
1101010110
101111000100
100010000110
110001101101
110001111001
11110111100
1111111100111000
1111110011010111
1111101110101011
1111110110010101
1010001010
1111110010001010
1111101001001001
1100000
11011100000
11000000011
1100111000
1111111111111000
1111111011111111
1111111111101111
1000
10010
1111111111111111
1001001
1100101000
1001100010
10100111010
11000010000
11111101011
110100000011
11110000001
1001011011
1111110011
1111100101111110
1111101110110000
1111101011100001
1111100000100001
1111011011011001
1111111011110000
1111100010001001
1000011011
1101101000
101101100010
100011001110
10001000100
100011110
1111111111011000
1111111111101000
111
1111111111111000
1111111111111100
110
100010011
100010110
1011001010
1101111100
100011010110
101100011
1010011010
1010000001
1101000101
1111111111010011
1111111011101011
1111110101011101
1111100111010110
1111110100010010
1111101101100101
1111100011000000
1111110111110110
10000000111
100010000100
100000111110
10010110101
11100100
1111111110100001
1111111111110100
1000
0
1111111111000101
1111111111100111
1111111111010101
1111111010110110
1111111001101001
1100111110
100010110
1111111100110010
1111110110111001
10010101001
1111111101011100
1111110011101111
1111111101010111
1111100011101001
1111110011101110
1111110010001000
1111110000111010
1111110101111101
1111101011101001
1111111001101110
1111111001111100
1011100110
101011101
101000
10010
1111111111001010
1111
1111111111110101
1111111110001100
1111111100111100
1110011
1111111110100010
1111101011010001
1111101100101010
1111110001010011
1111111111110110
10010010011
1001001110
1111110101100000
1100010101
111110000
101100
1111111000111100
1001101100
100110101001
1111111110110010
11010010
1111110110010100
10000101
1101000
1111111100110010
101010100
1111111111110101
1111111110001101
1111111111111101
101100
1111111111001011
1111111100100001
1111111111110010
1111110010111111
1111100010001100
1111100100000001
1111101001011011
1111100010
111111010
1001101011
1111110110010110
1111111011010000
1111110100001001
1010101001
1101111100
100101000
1111100101011110
1111110101001010
1111110001010010
1111111000101101
1111111011100111
10000
111010
101001110
10100010
10001
110001
111
1111111111000110
1111111101110001
1111111011111110
1111100100000011
1111101101010001
1111101000111110
1111101100111101
10101010000
10010000101
100010011101
111110111
101100110
111100
1111111100110110
1111110011100001
1111110001010111
1111111011000001
1111111110011011
1111011111001000
1001101010
1111110001010010
1100
1011001011
1011101110
110000001
1110110
1011010
1111111111011110
100110
1111111110101111
1111101110111111
1111011101010100
1111101100001111
1111110111010001
11100111
1111111111010000
1111101101001100
1111101011
101110111
1111111001110111
1111110101000001
1111111101111010
1111101011100101
1111111001010100
1111111001100011
1111111011100010
1111111101101001
110100111
1111101001011010
1111110111011100
1000111110
1111100110
110000001
101111
1111111111010000
10011
1000111
10101010
1111111010100110
1111110010111101
1111110110010111
1010000000
110101110
1011100101
110101101
10000000001
100000111010
11000100111
1010101
11100100000
10010010
1111100111100010
1111100100100001
1111110001000110
1111110011111111
1111110010100110
1111101001011101
1101010011
1111110111
10001111110
11101000
100101
1111111111100010
101111
1001110
1111101
1111110011001101
1111101011000100
1111010011
10011100
1001101111
10101110110
10001011000
1001010000
1001010101
1001100110
10111001000
1101101000
111011111
1111111000000011
1111110011000010
1111100110000100
1111111100101100
1111110010010111
11100000
1110111111
10010111010
1001101001
11010110
1111111111110000
101
1111111111110110
101
1111111110001101
1111101110001111
1111111001000001
110110010
111110111
1111110110001000
110000111
100000100001
1111111011111101
1000110001
101011000
111010101
10001001010
1110100011
10000111010
1111110001001111
1111110101010111
10101110
11100110
1101110100
10001011110
1011001100
1010111
111101
1110
10010
1111111111111101
1
10010100
1111111001110101
100110
1111111001010100
1010101010
10111
1111111111001011
111000101
1100101111
110100100
10111011110
1111111101111010
1111111110100001
1111111100010100
1010011010
101100000
1001101011
1111110010001001
1111110110010011
11101010
1100110000
1011100110
101000010
10010110
1111111111110111
0
11011
1111111111110000
1111111110110111
1111110101101000
1111110100101000
1111101011100011
1111111110000001
1111111000001100
11001101
101101010
1111110001100011
1111110101110000
1000111101
1111110101111011
1001001001
1111111101100001
1111000001
1000000101
1111101100010011
1111101111001011
1111111001111001
11011110
1010111111
1000001110
10111011
110100
1111111111101011
1111111111111111
10101
1111111111110111
1111111111111011
1111110101100010
1111101110011100
1111101110001100
1111101001001010
1111111110111011
100100110
1111110101101111
1000011101
10001000100
11010011
1111110101111011
1111110101010111
1100010101
1111111111100000
1111110111000010
1100010000
11001010011
110100010
1111111100011101
10011011
10101101
1101
11101
10001
1111111111111000
11
1111111111101001
1111111111110110
1010001
1111111110110010
1111111110001100
1111111110101000
1011011
1111111001101010
1111101111100110
1111110100001100
1111111010000011
1111101000010010
1111110101001001
11001101101
10010000011
1111111010100010
111001100
1011111100
110101101
1011100101
1000100100
101110000
1000110
1111111111101110
111
1111111111101011
1011
1111111111111001
10111
11
1111111111110110
101101
10001100
11110110
111001
10
1000011
101111011
1000111011
1000110011
1000100110
1000111010
11011000
1111111111110011
1111111111100111
10010111
1010110
10100110
1010110
110111
1111111111111101
1111111111100010
1
1111111111111101
1111111111110111
10101
1111111111100001
1010
1111111111110011
1010
1111111111100110
1110
11100
1010
10000
10001000
1100011
1111111111111111
100010
110111
1111
111110
101100
1010010
10010101
1100010
1001
1100011
100010
100101
1111111111011101
10110
1111111111110111
