1111111111111110
1111111111111101
1111111111111001
1001
1111111111101001
1111111111111110
100100
1111111111101010
1111111111101111
110000
1111111111101011
1111111111111111
1111111110111011
10
111
0
1111111111110010
1111111111101110
1111111111111100
10011
1111111111110110
1111111111111011
11
10110
11001
0
1010
100
0
1111111111100011
1011
100
110
1111111111111101
1111111111101110
1101001
1101011
1100
111101
1101001
1010111
111000
1010110
110111
111010
101101
110
1001110
110000
11000
111001
1011
11
1111111111110011
1010
10
1111111111011000
101010
1110
1111111111100100
10001
1111111111111110
101001
1100100
1111100
110001
10110010
1111111111110101
1111111110010011
1111111101001010
1111111110001110
1111111111111000
1001001
101110100
111010011
1111010
1111111110100000
11011
10101111
10000001
11100
1111111111111111
1111111111111101
1111111111011001
11100
1111111111111011
1111111111110001
10110
1110
100001101
101011011
100100010
101111000
1101011101
10001000111
1000111001
1010101101
1010000010
1111111111000100
11010
1111111100111011
1111111011010011
1111010101
10010110100
1110100110
10000100110
1011011101
1000100000
1111111111101001
0
10011
11001
10001
10
11111
1111111111111100
1111111111111101
11011101
1011100
10010011
1100001000
10010000100
10010011000
1101010101
1001110
1111111001001111
1101000
10100111
11111011
1111101011111010
1111110110111100
1001010
1111111110011101
101100001
1111110010111001
1111111101101111
1111111111011010
111010100
11011111
110
1111
1111111111101101
10101
11011
1111111111101100
10111110
11110000
1001111100
11101100
1100110001
110000100
10100001
1111111110110100
111011010
1010100110
10011011101
1111110101110111
10101
1111110111000010
1111110010010000
1111110101001111
1111110010100100
1111111000001111
1111110110110101
1111110010001110
10100000
1101100
1100
1111111111111011
1111111111011100
11
1111111111100100
1111111110010010
11001010
1111111001001010
1001000
100000101
1111111010011000
11100100
100010011
1111111011001001
111000010
100001110
1001101010
11010
1111111111111111
1111101001000010
1111110110001111
1111101111101111
1111111011001000
100111101
1111111101100110
10010011101
1100101100
110101110
111010
1111111111110000
1111111111011101
10100
1111111111100011
1111111101111111
1111111010100010
1111110010010000
1111110111010010
100111101
11001110
10010110001
101001100
1111111101010001
1111111001101110
1011000010
1000110110
1111010000
101100000
1111101100101111
1111100011010000
1111110101001011
1111110010011110
1111110010101100
1111110110100110
11010010111
11110001011
1010100011
100010
1111111111100010
1111111110010000
1111111111000100
10110001
10011011
11011011
10011
1111111111101001
1111110100011000
110110011
10010000
1001010
1111111110001010
1111110011101010
1011001111
1100111010
1111111111111001
1111100101000101
1111100010110000
1111101101101011
1111110011011111
1111101110110100
10011111
10010111000
111000111011
101000011101
111111101
1001101
1111111111100110
1111111101101000
1111111110010110
1111111111111100
101010101
1000010111
11110101
11011011000
10010011011
1010011001
1111111101110011
10111100000
1111110011011000
1111111110111010
11111010110
101011001110
1110101
1111101000101110
1111100010010001
1111100000010101
1111011101010111
1111001110
1111111001010111
1111111110001100
11110001000
100010001001
1110010100
100010
1111111111111111
1111111110010100
1111111011110111
1111111110110001
1001101000
1111111111000001
1011001011
10011011101
110011111
1111111101110100
10010001000
1011101100
1111110010011011
10011011100
110110011011
110010111000
1111100111001100
1110111110000000
1111101000100100
1111011110100110
1111101110011001
1111101100111010
1111110011111010
100010001
11110111111
100110011010
1001111110
0
1111111111111100
1111111110101001
1111111011000111
1111111011000100
110100001
1111110110110010
1111110100111111
10011100
1011111101
1111111110110100
111010000
11010001111
111011
100000111110
1001110101000
110101111010
1111111010101000
1111100110110000
1111101010001001
1111101101010101
1111010010101000
1111100011010101
1111110110010001
10101100
10101011001
10011111010
101110011
10001
1100
1111111111000001
1111111100011010
1111111110001111
110111110
1111110011011111
1111111101000100
10011101101
1111110000101111
100
111000111
1000010
10000101
100001001011
11100100001
110101000110
1111111100110011
1111101000011110
1111100010011101
1111111010011110
1111110110101101
1111110011110101
1111100111111011
1111100010011011
1111101010111001
1100110
100010010
10011
11
1111111111111000
1111111110100110
1111111101110000
1111111011011100
1111101000110111
1111101101010100
1101001110
111000000
1010000
101011101
1110000001
101110100100
100001011010
1100011110
101110100111
101010001
1111011111001001
10000100
1100111
10000100011
1111111000001111
1111101011110110
1111011101110010
1111101001001011
1111111010100011
1111111111101111
1111111110111100
1000
1111111111101010
1111111111101101
1111111110110001
1111111010000100
1111101110001001
1111100101101111
1111101000011100
110100011
1010110011
10001110110
100000011100
1111000000
1101100000
10000101000
10100110100
1111111100101010
1111101101001100
1111111111101011
100000
1111110001011010
1111111011001010
1111101111011100
1111100111010111
100011111
1111111100000111
1111111101001101
10111
100001
1111111111110110
10000
1010111
1000001
1111101101110001
1111110001110000
1111101100001010
1001110
1111110110011100
1111110101011111
11001111001
10100001001
101110010
10111101111
100011001
11011110
1111110001110111
110001010
1111111101101010
1111101000110100
1111111100111010
1111110000011110
101000010
10001001001
10001101
1111111010000111
1111111111010111
1111111111100110
100001
1111111110111000
100111100
1001100010
1111110111001110
1111110100010111
1111111001001100
1111111001000100
1111101101010011
11000100
11001011111
101111011
1010111110
1001111001
1110000101
1000010100
1111111011100111
1111111010100111
1111010010010110
1111110011000110
1111101110110110
1111110100001010
110010010
1100001100
1111111101111000
1111111001111110
1111111111010100
1111111111110011
1111111111100000
1111111111000100
10011
1111111111011000
1111111100011011
111011000
1111111101011001
1111110001110111
1111110100111101
1111110010110111
1000111100
10011100010
100011111001
100101100001
1111111100010111
1111110001101110
1111111001011010
1111101100010001
1111110010010101
1111111001110101
1111110110000101
1111101100000000
1010111010
10111000110
1111110100100111
1111111011101110
1001
1001
1111111111111100
1111111111100010
1111111111001110
1111111010001110
1111111111111011
111110001
1010001111
1111110011000000
1111110110101001
1111101011011111
110010101
1001111010
1011110101
1100001101
111000101
1111100001011100
1111110111001000
1111100100111100
1111101000000001
1111111000101110
1111111001101011
1111110000100010
1110000001
10101110
1111110011000000
1111111110001011
0
1111111111110010
11010
10010111
1010110100
1111111111000100
100110000
1111111110110100
1111111111001110
1111111111111110
1111100101011110
1111100101011001
1111101001111011
110001011
111110101
1111111110001101
101010110
1111100111111110
101010100
100111010
100101100
1110000
1111111111110001
1111110011100000
110110100
1111100
1111111011000110
1111111110011100
101100
1111111111011011
1111111110111110
10101001
1111111111111001
1111101110110111
1111110001010101
11000
1111111001010001
1111111111100111
10001000000
1111101011010111
1111110011101011
110010000
1011010001
100111001
1111111101110111
1111110101001000
11001010
1111111101110000
1011000
1111111101010000
1111111110001000
101010
10011001
1111110110001010
1111111110111100
1111111111011110
1111111111101000
1111111111111100
1111111111110001
1100001
1111111101100010
110011011
1111110101111110
1001011001
100001
1111111001001011
1110110010
1111110111010110
1111111100001110
110001010
1111111001100110
10101011
1100110011
1111110110001010
1111101110000100
1111110101110010
1111110011111011
1111111001010000
1111111110010101
1111111001010101
1111110101110010
1111110001101111
1111111111100101
1111111111010101
1111111111100110
1111111111101001
1111111111111011
1010001
100001011
111010000
1111111101110110
110001111
10101011001
10000110100
1111111000101101
1000010000
111110100
1111111101110000
1111111011110101
10011111
1111110010110011
1111111011101101
1111101010000000
1111111001110111
10010001111
111001111
1111111011111000
1111110001011010
1111111010011010
1111111001001111
1111111100100001
1111111111111011
1011
1111111111101001
100
1000100
101101100
10101001111
100000010
1111110100101100
1111100100111011
1111110100000000
1111110010011000
1001001011
1110111
1101100010
100001001
0
100011000
1111111001001110
1111111010010010
1111110101000101
1110000
1111110111000000
1111101110011110
1111110111100010
1011110100
1010110
1111111111000000
100101
11
1111
11100
100010
11100111
110111110
1111111111000100
1111101111000010
1111110111011011
1111101111100001
1111111001100011
10100110111
10000010100
11011011
1011100001
10010011000
101001000
1001011010
1111111101011101
1111111011010111
1001111110
1111111000011001
1111111010010101
1111111101111101
1011010110
110000000
1111111100100000
1111111111000010
1111111111111100
1111111111110101
1000
11010
10
1111111011001111
1111111110001010
1011100101
1100010001
1111111111001010
1111101101001011
1001111
100111110
1111111000111110
101111010
11101000
10100001101
10111010000
10111011100
1010110100
1000000111
1111010
11011010
1001101000
1101101001
1001110100
1111111111000000
1111111111010100
1111111111101010
1111111111000111
1111111111111110
1111111111111001
1101
10000001
10001001
1111111110111101
1111111111011111
1111111101000100
1111110110100010
1111111010000001
1000110110
111010110
101101011
11101110
11110101
101000100
1100000101
1010000011
101010110
1010110
1111111101100110
1111111010110111
1111111111101110
0
1000010
1101
1111111111111101
1111111111100110
1111111111110011
1111111111101111
1111111111010000
11
1111111111101001
10
101100
100010
101
1111111111110111
101100
10100
1111111100100000
1111111100000100
1111111111110010
1111111111100110
1111111111000111
10100
1111111110011111
1111111101110010
1111111101110011
1111111111100000
1111111111101111
10000
111101
1111111111101011
10000
