1111111111111000
1111111111110111
10110
1111
11
1111111111111100
1111111111111010
1111111111110011
1111111111101010
1111111111010101
1010
11110
10100
1111111111111110
10011
1111111111111110
1111111111010101
1111111111100110
111
1111
1111111111010111
1111111111101001
100000
111
1111111111111010
1111111111111010
11010
1111111111111011
1111111111101010
1111111111111110
0
1110
1111111111111001
1111111111111101
1000
1111
100100
1111111111111101
1111
110
10111
1000110
11001
101100
10101110
11111
0
1011000
1101010
11010
1111111111101000
1110
1011
1111111111001010
1111
1111
11100
11011
10001
1111111111101111
1111111111111000
1000
1111111111100101
110010
10010101
1101100
100111101
1100001011
1100101111
111000000
1100111000
1100000010
10111100
110111110
11110100
1000011100
100001001
111010001
110001110
11101101
1001100
1111111111100100
1111111111110101
1111111111101101
1111111111101000
1111111111100111
1111111111011001
0
11110
10011111
101000110
1001101
1111111101001110
100000111
1111111100010100
1100010111
111110101
1101000110
1001010100
1110011011
100110101
1100010001
1100001001
10001100000
111100
111010101
1011111111
10000011110
1010010111
1100000
1010101
1111111111101110
11110
1111111111100011
1111111111110001
1111111111111000
11011
1111111111100000
1111111110001101
1111111110110110
1111111011000001
1111111011111101
1111111101000000
1111110101100011
11111000
10001111100
1111111000100101
1111100111111110
1111110011001000
10000010010
1111111001010101
1010100101
1111110000011110
1111101101011111
101100
1100100100
1111100001
1111111101100110
1111111100011101
1110110
1111111111011101
10
0
1111111111001101
1001110
1111111001001100
1111111101000110
100100
100001010
1111110110001100
100101101
1111100011001010
1111111101111001
1111101001111011
1111111011100110
1111110010101110
1111110011000101
1111111111100100
1111100011010001
1111101010010111
1111110000010000
1111101100100001
1111111001110011
1011111100
1100110100
100001101
111100011
11011100
1111111111101000
1111111111110100
10001
1111111111001001
10100001
1110110110
110111101
1111111101111110
1111111011111111
1011000
1111011000000010
1111010110011010
1111101001000110
1111110000010011
1111101010111011
1111111000011001
1111101011100111
1111110011010100
1111011100010010
1111101011111010
1111110011111000
1111110101010001
1000110101
1100010011
100111111
1000100
1011101
1001001
10001
11001
1101100
1111111110001111
101001000
11100101101
1000111010
1011101110
11000100
100001010
1111100111000111
1111011111110100
1111100010100001
1111101100111001
1111100100011010
1111101101000110
1111001101001111
1111101111111011
1111011001001111
1111101110001101
1111100111010100
1111101111110101
1111111101101101
1111110010000101
1000011011
101000010
1110000
11010
1
1110111
110011011
1111111110100111
10001010
1111010111
111001011
11110001
1111110110110010
1111110010111101
1111111010111011
1111100100001000
1111100001101011
1111100111101001
1111100011100010
1111010001010110
1111000011111010
1111101011011001
1111101010000101
1111100110000001
1111111101010001
1111111101011110
1111110111111110
1111111001011110
1111111011100000
1111010
1111110111111101
1111111111010011
1111111111111111
10001101
110100100
1111111011011101
1111111000100000
101001
11100011
101101100
1111111110001111
1111110000000011
1111101010011100
1111101100000011
1111110111100111
1111010011111110
1111010101111111
1111010100111101
1111101010001010
1111110010101111
1111110001010111
1111110110110111
1111111111010011
110010000
1111110001100111
111010010
1111101010000011
1111100111011001
1111111001101111
1110111
10011
10100100
101001010
1111111110010111
1111111000010011
1111111101100101
1111111001100000
11011111
100110111
101110010
1111110101010001
1111111101011000
1111110001111110
1111111011110101
1111011001001000
1000001111
1111110010010001
1101111000
1010010111
1111111111100100
1111011011
1111110101001000
1111111111110000
111100110
1111111101010000
1111110010111110
1111111011111010
1111111110110001
1111111111110010
1000110
11000110
11101010
1111111111010101
100011001
1111111000011010
1111111000111111
1111111101011111
1101000010
111011001
1111111000110101
1100010
11010000
101101001
10010000000
10101011110
1111111001000100
1111111111111011
100111101
1111110011100011
1011100110
101110001
11001001
1111101101111110
1111100101000010
1111101111001000
1111111110001001
10111
11110
100111001
1000000000
1111101111011100
1111111000111010
1111101101010101
1111111100101101
1010110110
1111111110000100
1111111000100101
100100101110
10011111001
100010100110
1011111110
10000100001
10101101010
1111101110000100
1111111001110010
110100101
1111110101000010
1111111011110011
10000001001
111010
1111111110110101
1111101001111000
1111110001001010
1111111111110001
10000
1111111111101110
1100000
100011011
1111101000000111
1111110000010011
1111111010011010
1111110111010000
1111111110001101
11100110100
11001100110
11100111000
10101011111
11001101001
1111101010010010
101000001
11110000000
100001000
111000010
101010010
1111011000
11100111011
1111110100
11100000111
11010100101
1111111011111100
1111111100111111
1111111110111001
1111111111111111
1111111111111111
11101
1111111111000010
1111100010010010
1111111111000010
10101100
1111111101111011
1011111110
11011011001
110110010
11011100110
100001111100
1111111000001110
1111111100001000
10101011000
10100000110
1011100001
10010111101
101111000
11000100111
10100010101
101001101010
101001001100
11110111111
101110011
1111111100010011
100
1111111111111000
11001
1111111111111101
1111111111011111
1111100001111111
1111111100110110
10101011000
100000110001
11101001001
10000001011
10111011001
0
10100001000
101000101
11011000010
11011000111
1110
100001101000
10101101101
10010110101
10001011001
11000101111
100000000011
11011101001
1100111101
101010001
1111111011111110
101000
1100
11000
1111111110000010
1111111100001000
1111110101011001
111000001
1011011001
1011100111
110011010
1111111000000010
1111111001001111
1111111010011011
10000100110
1111001000
1011010010
10100010111
1101011111
100011011100
1100101101
1101101011
1000001010
1011110110
1111111010111100
101100110
11100110
110000001
1111111111000110
1111111111010011
1101
10010
1111111100111001
1111111001100100
10111101
10000001111
110010110
1001111100
1111111100001001
1111101111010001
1111110011110111
1010110111
1111110111101100
1001010
1101001011
110101110
1000011000
101110000
1111110111011111
1111110100000001
100101011
1010111011
1111111001010011
1111110101110011
1111111101011101
10110101
1111111111110011
1
1111111111110111
10110
1111111110100101
1111111001110111
100010111
1010010101
1111101011001000
100101100
101010000
1111110001011110
1111110111111111
1111110010110000
11001100110
1111111100101001
110010001
10001111010
1011100110
1111110111000001
1110001
1111110100000010
1111101011000100
1111101110000100
1111100101000011
1111101101010111
1001110
1111111001011110
1011
1111111111001101
1000
1111111111111010
1111111111111011
1111111110011010
1111111011001001
1111110101010101
1111101011111100
1111110110001100
1111111110000001
11010110
1111101100000100
11101010000
10110010111
100110011
1000001101
1111111001110010
1111101100100101
1111111111110010
111100101
1111100111100010
1111111100001101
1111100111100001
1111011110011100
1111101010001010
1111111001011111
1111110110010010
1111111111110111
1111111111100101
1111111111100011
11010
110
1111111011100100
1111110000110100
1111101101101100
1111100110010000
1111100101010100
1111100100110110
1111111011100001
1111111000010100
10110100110
101000100101
10100001110
101000000
110100001
1111110010110001
1111111101011100
1111111010000011
1111011110010010
1111110001110001
1111101011010000
1111100110101100
1111100001101000
1111110110101011
1111110110110001
11
10011
1110
1111111111111001
1111111110100011
1111111110001101
1111110011010110
1111101010001010
1111101110100001
1111101011010101
1111111001011011
1111110110101011
1111101111000101
10001101011
10111001100
10011011011
1101
1111101111110100
1111111111011000
1111111110110100
111011110
1111110000001000
1111100111001011
1111100011110101
1111101100001111
1111110000111111
1111110010101101
1111111101010011
111110
1001
1111111111000111
1100
1111111111101100
1111111110011110
1111111011001010
1111101101110001
1111100101100001
1111101001000000
1111101000010000
1111111010010001
1100011111
1111101110011110
1111101110101000
1111111110110011
1111111001001110
1011010101
1100110011
1111110011011010
1111110100111010
1111110100000110
1111011110101101
1111100011110100
1111101111101101
1111101100100011
1111110011000110
1111111001001011
1110
10011
100010
101000
1111111111100110
1111111101011101
1111111100100000
1111110001100001
1111110101010010
1111110001011010
1111100101111011
1111011111111011
1111100011110010
1111011000111101
1111100010010110
1111010100100001
1111110010001000
1111010111110110
1111110100111100
1111101111000010
1111110111000000
1111110100100111
1111110000000000
1111110101111001
1111111101101001
1111111011001111
1111110001000111
1111111101110100
1111111111110100
1111111111110110
110110
1111111111110000
10
1111111110110011
1111111010110011
1111111011111101
1111110111110011
1111101110011011
1111101110001110
1111111001000111
1111110100110010
10111000
11011011
10000100
110010101
1111111000001010
1101101110
1111111010100100
1111111011101100
1101100
1111110100000101
10110101
1001101110
101001011
1111011
101101
110
100110
1111111111111000
10110
111
100
1111111110000111
1111110110110110
1111110100011000
1111101101110010
1111101100011000
1111011101100101
1111101101011011
1111110001101100
1111101100001000
1111101001100111
1111111000100101
1111111110111000
1111110111110100
1111101110000110
1111101011011010
1111101110001111
1111111010101101
100001000
110101101
1001000100
10111010
100100
110
1111111111101001
1111111111110111
1010
111
1000
1111111110101111
1111111000011100
1111110101011011
1111101111110101
1111101001010000
1111100100101010
1111100010000101
1111100111110001
1111101001000110
1111100110101100
1111010100011101
1111100001010111
1111100011101100
1111100110100110
1111100010010010
1111110001001000
1111110110010000
1111110111001100
1111111100110001
1111111110111110
1111111111110101
101
1111111111101110
1011
1111111111110010
1000
10111
10000
1111111111110111
1111111111111111
1111111111010011
1111110111110000
1111111000100010
1111111101110010
1111111001001110
1111111010000101
1111111010000010
1111111110000100
1111111001011010
1111111001111000
1111111011111101
1111111101000111
1111111100000101
1111111110101111
1111111111100011
1111111111000101
1111111111101111
1111111111101000
1000
11100
1111111111111110
0
