10101
1111111111111110
1111111111111000
1111111111101010
1111111111101011
1111111111101111
1111111111100000
110
11100
101010
1111111111111101
1111111111011111
1111111111010110
1111111110101101
0
10111
1111111111001110
1111111111100111
10
10110
1111111111110011
1111111111110111
100110
1111111111111111
1000
1111111111101111
1111111111110000
1111111111110010
1111111111110001
1110
1111111111111111
1111111111111100
1001
1111111111110100
10001
1111111111100010
1111111111111011
0
1111111111100101
1111111110001000
1111111101001000
1111111101100001
1111111110101111
1111111111111111
10010
1111111111000101
0
1111111111101010
1111111110000110
1111111110111010
1111111111010001
1111111111101010
1010
1111111111101010
1111111111101111
10010
0
1
1110
1001
10010
1111111111100001
1111111111011110
1111111101110011
1111111100100001
101011
1111111100101001
1111111010001000
1111111100001001
1111111011011010
1111110101011110
1111111100001001
11011
1111111101110100
1111110101100100
1111110010111000
1111111000011100
1111111001000101
1111111011101101
1111111110110100
0
11010
1000
11111
1111111111110011
1111111111100110
1101
1111111111100100
1111111111101000
1111111101010100
1111111010101011
1111111000101011
1111111001011011
1111110110000001
1111110000110001
1111111111010000
1011001111
10100110101
110101110
1010001011
111011011
1111111011101100
1111100010100000
1111011010111111
1111100001111100
1111101010011010
1111110011100010
1111110111001010
1111111011100000
1111111111100111
1111111110110101
1111111111100101
1100
0
110
1101
1110110
1100101000
1110111100
1100001011
11000000011
10100010001
1101101101
1011010001
10111100010
1011101011
1111110111001010
11010110
1111111010011110
1111110000010001
1111111010101011
1111101101100001
1111011100100111
1111100110001010
1111101111010000
1111101110011100
1111110110100110
1111111010110001
1111111111001101
10000
1111111111100111
1111111111101111
101
10100000
10011111100
11011101001
11100110010
11010101101
10010100101
110000000
1111110101111100
1100110000
100100110101
1011101110
1111111001110001
1001001011
1111111000011111
1111110011100110
1111101101110101
1111111000011010
1111100010010100
1111101100111000
1111100000001000
1111100010110010
1111111110000010
1111111101101100
1111111101100011
1111111111010101
1111111111110110
1111111111110011
1111111111100101
1001111010
10010110000
1111111001011000
10111011011
1011000010
110010011
1000000110
1000001110
10001000010
1111111100100100
1111111111000110
1111111001100010
1111110100010001
1111111001110000
1111110010011001
10111101
1111110001011111
1111101000000110
1111110101001000
1111010110101000
1111100110101000
1111110000011001
1111110011010100
1111111101101101
1111111111101111
1111111111010011
1111000
1000010
1110100010
11001010110
1111110111111101
10100101100
1111101101011011
1111110001111011
111010011
1111110100101000
10000000100
1111111001100110
1111111000
1111101110111011
1000110101
100000101
1111110110101101
1111100101100111
1111100111001101
1111100101111101
1111011101001111
1111010001100110
1111011100110100
1111100000111101
1111110100110011
1111111101011000
1111111111001000
1110
110111
10010101
1011100000
11001110100
11010011
10001011100
1111111010101000
1111111100000001
1111111110010011
11100110111
1111101101111000
1111110111110011
10101001110
111011000
1101011000
1010011011
101101
1000001010
11100
1111011000011000
1110111011110110
1111000010010001
1111001001100101
1111010100111110
1111110000001011
1111111101010010
11010
10100
111111
10000001
1011000010
1101101100
10011110110
10110000000
110000010
1111110010101000
1111101111100101
1111101011011001
1111100001110111
10011000000
101000
100010110001
110111110101
101101000000
100001010010
100001000111
1111111110000010
1111001101111111
1110110101010100
1111000100001100
1111010100100001
1111101011100000
1111111100100011
1111111111000111
1111111111110100
1110
1000111
110101
1001011000
100011011
110010110
101100
1111110101101001
1111100110010001
1111101100101001
10110101
1111110001001011
10000000111
1011100100
100000010001
11111110100
1001100110010
110100111010
1110111010
1111110010100111
1110111010110010
1110111011010001
1111010001111001
1111100000010110
1111101101101010
10000001
1111111110101000
11110
1111111111100110
11100
10000010
1010011100
1011010
1111110110010000
1111110100000000
1111100111001110
1111110000110101
1111111110001001
11001000011
10110100000
10111001110
1111110101101100
11111110010
11111111001
11001110
10001101001
1111100001100111
1111001000111101
1111000101001100
1111001000010110
1111100000010010
1111101110000101
1111111100001000
11000101
1100000
1111111111110101
1011
1001
1101110
1111111
1111111010100001
1111111001000010
1111101101100110
1111110011100011
1111111101001101
10111010
1111111111001100
10101101101
10001001111
1110111001
11001101000
11100110000
10011111101
1111111010111100
1111101100011111
1111011100110010
1111000110110101
1111001101101011
1111110111101111
1111111110001001
1000110011
1110111011
101011001
1011010
100011
11111
1000100
1111111101010001
1111111110010011
1111101000101111
1111110111110111
1111111000011010
1111110011101001
1111111000101101
1111111101001110
11111001
11100010101
11011011101
10001001000
10110001010
11111001110
1111110010011001
1111110110000011
1111001111001110
1111100100011100
1111110100111100
1111110000010110
1110000011
11111000001
10011011110
1000000010
11111001
1111111111111011
11110
11011
1111100
1111111101001101
1111110001100110
1111110010100010
1111110111010010
1111110110010111
1101011
1111110101110000
1111110000001011
1111111110111010
10000101110
1001111100
101001011
110011110
1111110011001001
1111011101100010
1111101101111110
1111110010111010
100110101100
1010111000
11100010000
10001000111
1001101011
110011001
1111111111110111
1111111111110000
1111111111111010
1111111111110000
111001010
1111110110111011
1111110111011001
1100111
10010100
1111111010101100
1000011101
1111111010111101
1111111110100100
1111110010111111
11110010100
10100110101
1111110100
1111111111010010
1111111110001001
1111100111110101
1111111100100001
10111000
11000001111
10110011001
1111110101
10001100
10100001
1000100110
110100
1111111111111111
1111111111111101
1000101
11101010
1111110100111010
1111101111001001
1111111000001010
100101100000
11110101110
100010111001
1111110101100001
1111111100101111
1111111101001001
101110111
11001010111
1111111001011001
110001011
1111010011001011
11001111
1111110110101011
1010010101
1111111010010111
111110100
110010000
1011110100
100010000
100111100
1111111111111001
10010
1111111111111110
1110011
1111111111111101
1111111000100000
1111101010100000
1111110101001111
101000000
1111101100011101
1111111101111110
1111101011000011
1111110000001001
1111111010100111
1111110011001111
110001111
1111011101011011
1111100110110100
1111101011111101
1000111011
1111110011110100
1111111011011011
101000100
1110010101
100100
1001001
1111011011
101101101
1111111110101001
1111111111110010
0
10000000
101001
11110011
1111110101110001
1111110011010000
1111111010110010
1111110111010000
11000001
1111111101100011
1111111111011111
1111111011101110
1111110010111100
1111101110010100
1111110110101111
1111110010001011
1110010001
11100010
1001001010
1111010110
1100111110
100011001000
11101101
101000111
10011110011
10100011
111010
11111
1111111111110010
1111110110000100
1111111001000010
1011101
1111111010011101
1111101111101010
1101000010
1111101101000001
1111101111000000
1111110010110010
1111011110100001
1111101000101111
1111101101100101
1111111010001101
1111111111010101
100000010
1111111100100000
1010110
11110111011
1010011000
1111110111010001
101001011
1110100
1111111000110011
1010011001
11011011
101110
1000
1111111111011011
1111111000000000
110011
1111111010101111
1111110001111111
1100110100
1100010111
1111111110011011
1111111110001110
1011100110
1111110011110100
100000101
1111110010010011
10011111
1111101000101011
110010010
1111100100000111
1111111100111010
11010111
10111011001
1111111011001001
1111111101000001
1111110101100010
1111111001100110
1111111111011010
100010
1111111111001111
1111111111101111
1111111111100111
1010101
111000000
10100111
1111111100110010
1111110101000001
1111101100100110
1111101111010100
1111110000110000
1111110110011001
10001011
1111100011100001
1111011011010111
1111111100110110
1101010000
1111111011100001
1111011100100000
1111100100110001
1010011010
1111101010000110
1111110100100111
1111111011010001
1111101110111000
1111110000101111
1111111111101011
101010
11000
101000
11011
1001011
101110110
1001011001
101000011
1011000010
1001100100
1000101010
1111111100001101
100011011
1111110100011110
1111100110010101
1111100010010100
1111110001101001
1111110011000011
100110011
1111111100000001
1111111101010000
1111111110010100
1000110111
1111111100110100
1111111010101010
1111100010010010
1111110101100101
10011000
100110
1100
1110
10010
1001001
11010110
100111100
110100
1111101011001101
1011110
1111110000011011
10110101
1010100
1110011010
100100110
10101010000
1111101001011111
1111110101001110
1111110001111111
1111111010011011
1101100111
1011000010
100100
1000001111
1111110010000011
1111100111111110
1111110100001110
100100
1111111111011110
10000
1
1111111111111100
1111111111111111
1001010
1000100011
111111011
1010010011
1001110001
1011111011
1111110100110011
1111110101101110
1111110111011110
1111011011001010
1111111100011100
110011
1111110111000000
1111110101111101
1000100
1111111100111001
1111110110000000
1111101100010100
100010000
1111110101110101
1111100111010001
1111101110110111
1111111111110110
10001
1111111111111000
1100
10011
0
1111111111001100
110111111
1100110000
10010110110
11110001000
11011001000
100000001
1111110011011110
1111101110111011
1111110101011010
1001110000
110010101
1111111000001010
1111110100010001
1111110000110001
1111101110000010
1111101000011111
1111110001001111
1111101100100011
1111101101111001
1111101011010001
1111110011100001
100001
1110
0
100000
1111111111111111
1111111111101010
1111111111111001
1111111111000011
1111111111011001
1111111111100110
100001
10011111
100101110
101111101
10110110
1111111110110110
1111111000100101
1111111001011101
1111110110000001
1111110101111010
1111111011010001
1111111001100110
1111110010110010
1111110001110110
1111110000011001
1111111010101101
11001
1001
1111111111101011
1111111111111010
1111111111110011
1111
11101
1111111111110010
1110
11
1110
1111
1000
100011
1111111111110111
111101
10101
11100
110101
1000001
110010
1011000
101100
1010010
110011
1111111111101111
110
1111111111101100
1011
110000
1010
0
1001
