1111111111111100
110
10110
1111111111011001
0
1011
1
111
1111111111110001
1111111111111000
0
100
1111111111111101
1111111111110100
1
1111111111110111
1111111111111101
1111111111011101
1111111111011000
1001
10111
110
1111111111110001
1101
1111111111110110
1111111111101011
10011
1110
1111111111111000
1111111111101001
1111111111111001
1111111111100101
100011
1111111111111110
1111111111011101
10001
1111111110110101
1111111111001110
1111
1111111111111111
1111111111110001
1111111111110001
1000
11
1111111111101101
1111111111111110
1111111111111001
1111111111110110
1111111111110001
10111
100
1111111111101000
11101
1111111111100011
1111111111111001
100001
1111111111101010
1111111111110101
110
1111111111100010
101100
10011
10011
1111111111010011
1111111110001001
1111111110000010
1111111101010101
1111111010011001
1111110110100100
1111111100100111
1011010
110110100
110001100
10000011
11100000
10010101
1111011
111100
1000010
101110
1111111111110111
1111111111111001
101
1111111111110000
10101
1111111111101100
1101
0
10001
100101
1111111111111101
10111
1111111110011110
1111110100010011
1111110001001110
1111110100011111
1010000101
1001100010
110111101
101011
10011100110
1010101110
11100010
1111111101010010
110001011
1111111101111010
1111111010101011
1001
100111010
1111111111100100
1111111111111011
1100
10100
1101
1010
1010000
1101100
100011101
101101100
1000001001
1001100
1111110110111011
1111111110100100
1000011001
10001100001
1010010011
100110110
10101111001
10000101
1111101110100011
1000001000
1110
1111110100010010
11001001011
1111010101
111000101
1011110000
11100111
1111111111111011
1111111111110010
1111111111011111
100
11000
10110010
100110100
1111101011
10000100001
110001101
1111111100101111
101
1111110111000101
10001111110
110001001
101110001
1111110110011010
101110000
1001100000
1111110011010110
1111111001101100
1111111010011100
1110111
1111111110011100
11000011
1011010011
1011000001
100100011
100100
1111111111101111
1111111111111111
1011
11110110
1000110000
10010001110
101110101
10101011
1111111101100101
1011111101
10010011
1111110111000001
10010111101
101101
1100001001
11011010
11100011
10101101010
1111111111101101
1001011100
1111110011001101
1001000100
1111111101110011
10100011
1111110110100100
1000011011
110010001
1111111111110101
11001
1111111111111010
1101
1111111110000100
110011000
1111110010
1101100
11011000
1110010001
1111111000010100
1111110010101001
11011111
11011111
100111011
10011101000
10100001101
1111110111110101
1001111001
1011
1111101011011000
110000011
1100010
10110110
101000110
1111111000110000
111111101
111000100
1111111110100011
1111111111111110
1111111111111111
1111111111011010
1111111100011100
10100100
110100
1111111110011011
101101011
100000110
1111111111000001
101001010
1111111100011111
1011110101
1111111011110111
1111111101110000
1111111110011101
10000001000
1111110001100101
100110001
1001001110
101100
1111101000110000
1111110101110101
1111110011100100
1111101110010001
1011101110
1010001011
1111111111010010
101100
0
1111111111000101
1111111101010010
10000010111
101110111
1111111110001000
10110110111
1000011100
1111111110110001
110000111
1111111001100011
1111111111010011
1100010010
10011101
1101111101
1001001001
1111110011101100
1111101100010011
1111110110010111
1111100111111101
1111111000011111
1111111010011101
1111111110110011
1111101101010001
1100110001
1011000000
1111111111111110
1011000
100
1111111110011100
1111111111110110
11100000000
1111111101001001
1111110101001100
101000010
1111101111011111
1001010100
1111111011110011
1111111000100010
1101001100
101011000
110011011
1111111111010011
1111110011100100
1111101011100001
1111111011011101
1111110111111101
1111111010101001
1111110101011000
1111111110111101
1111111001100101
1111110101000001
10100011111
10010000101
10111000
100011
110000
1111111111000100
11100000
1010000011
1111111100010011
101000010
1101111
10011100001
1111111000000100
1111110010111111
1111111000001110
1111110011010100
1011000011
110101110
10101010000
1111111011001010
1111111100101100
10101010000
111010111
1111110111101100
1100000011
1010011
1111111000010100
1111110101110001
1100000111
1001010010
1111111
100100
1111111111110101
11010
1010011
1111111010010011
101110100
100101110
10101010
10100001010
10110011
1111111110110110
11001101
110100001
1111111100011101
10000011111
10111000100
10001110011
10010111000
1111110010110011
10001000011
1111101101111101
1100101101
1111101110010000
100111111
111111110
1111110111000011
1011110
11000000
1010110
1111111111001011
1111111111100010
100000
1111111100100101
1011110101
10000011111
1111111010100111
11000000
1111110111110101
11010011
10100101111
1101110101
1111100010
1000001001
11000101111
1111111111111010
10101101101
1111011
1111111100001110
1111111000110000
1001101111
10000000111
1111110100001100
101101101
111000000
1111111010010010
1111111100110010
1111111111101001
1111111111111000
111110
1010100
1111111110011101
1111111010100001
1111110000110110
1111111001001001
1111111000000110
1111110
1101110111
1111110010110101
1111101100110111
1010011111
1110
10100111000
1010100101
1110111110
1111111010111011
11101010110
1111110000110111
1110
100100100
10001001101
11101000000
1100011100
1111110010111011
1111111011100000
1111111111101101
1111111111010101
111110
1000100
1111101101111101
1111101001101101
1111100010001011
1111100001100100
1111100000001110
1111110011000111
11101110101
10111100010
100000111101
10111010000
1100000010
10011101001
10110100101
11100011111
1111111000010101
10010001001
1000111
1111111101010001
10111111010
11110000010
11100000111
1010000010
1111101011000000
110001
1111111111101101
1111111111100010
101111
1111111110010010
1111101011100011
1111101001100011
1111010000001101
1110110101111111
1111001111000010
1111100001101101
11000
10100110011
1100110010
100111011110
11011001100
1010011100
1111111100100110
1111111000101010
1111111101110000
10101000010
101110110
1100101
1101110
1101110101
1111111001010000
1111111010100001
1111101001101111
1111110000011110
1111111111101111
1111111111111000
1111
1111111001110010
1111111011101100
1111100010100010
1111010000000010
1110110100101011
1110110010000111
1110010101011001
1110001010101001
1111000000111001
1111010000011011
1111001100000101
1111101111101010
1111111000111110
1101001
1111101011011011
1111101111100010
1111110110000000
1111111010000110
1111111101010010
1111111100010000
1111111110000110
1111111010001011
1111101011111001
1111110011110001
1111111001100000
1111111111011110
1111111111110111
11100
1111111111011101
111010000
1111111011000001
1111100010000010
1111101101110111
1111100000001010
1110101101110110
1101111110101010
1101110011100000
1101110010111110
1110001001100010
1110110001000101
1111110011111101
1111110011100110
1111111001101110
1111111001111001
1111110110010100
1111110010100101
1001000000
1111111110
1011110000
1111110111110111
1111110101101101
10000011
10101
111110
1
1111111111110100
11000
10100101110
110100
1111111000
1110011010
1001010010
11000010011
10000001101
1011111010
1111110000011110
1111101100110101
1111101111110000
1111111100011001
1111101111010100
1101101011
1111110000101110
101100000
1111110110001011
1111110101000100
1111111011011110
11010010
10011
1111111010101011
110000001
1111111111001100
10110
100001
1111111111111100
1111111111010101
1110100111
1111110110
10011010110
11001001101
1000111
11100111110
11111110100
1110000011
100001010
0
1111100001000000
1111111001101100
1111110111101001
101011010
1101011111
1001100001
1111111111100011
1111111001110111
1111110101010111
10010010001
1111111000011110
1111110011100000
100010
1011
11
100
1111111111110000
11101
10101011111
100101100101
10100011101
10001010110
1110101111
111000100
1111110000110111
10000001111
110101111
1111111011010011
1111110100
100011111
1111101100010100
1111111110001100
1111100111011101
1000100010
1111111101111101
1111110011
11111110
1111101011001111
1111110001010010
1111101111001010
1111111100101111
1111111111110011
1111111111010110
100
101
1111111101101111
11001000
11001010110
10100111100
1111111001101011
1111110111010110
1111111010110011
1111110011111101
1010110011
1101011001
11110111
1111111010001000
1111110111010000
110000101
1111110010110111
1111110111000100
1111111101010110
1111111111011010
1111111111011100
1111111001010000
1111111100110011
1111110011100011
1111101101001101
1111110011001001
1100
1011
1111111111110101
1111111111110000
1111111111111110
100011101
1111000010
10000010110
1111110010110111
1111110100011110
1111111100110001
1111111111111101
110111011
110100011
1111110110110000
100011110
1111111111000111
1111111001011101
1111101111101011
1111111111111001
1111110111010010
1111110111101111
1111111001011100
1111101110101010
1111101011100011
1111110000001100
1111111010001100
1111111001100101
1100
1111111111011011
11
10
1111111111011011
11011100
1011101010
10001111011
1100110111
1111001001
100000
110001000
11010101111
10000010100
1111111101111111
1111111101110011
10010001
1011100
1111110011101011
1111111111110000
1111100111100111
1111100101101110
1111111101110000
1111111111101001
1111111010110000
1111111011011110
1111111000101000
1111111100110001
1010
10000
1111111111101111
1000
11
0
100101010
1111011010
10010110110
11001001101
100001010011
10100010110
10110001
1111111
1010000
1000011110
111100010
1111111100110101
1010110
1111110111101000
1111110110000100
1111111100000110
11010011
1001011
101111111
1111111111110000
1010
1010
1101
1110
100001
100001
101111
100010
110110
101100011
110011010
110011101
10111001
1111111111011111
11100100
1111111111010111
1111111100001111
1011100001
10001100101
10010101110
1101010110
111000000
100100101
11001111
10110011
110111
1111111111100110
100
1010
1111111111111100
1111111111011001
101
1111111111101111
1010
1111
1111111111101101
1111
1111111111110001
1001
101000
1101
10011
10101000
1010000
101100
1001
1010101
10101001
1011110
1011
111
1111111101011110
1111111110010100
1111111111110011
11010
10010
111
1111111111110000
111
10011
