1111111111111101
1111111111100101
100
1111111111111000
1111111111101110
1111111111110111
0
10100
11011
1101
11101
0
111110
1111101
10110
1111111111111101
1011
1111111111110010
1111111111111010
1111111111101101
11010
101101
1111111111111000
1111111111110110
0
1111111111100011
1111111111101001
10
1111111111010101
1111111111101000
1111111111111101
1111111111010101
1111111111110110
1110
100011110
1010101001
100101000
1001100
11001001
100001000
110111000
100000001
1001111
1011011
10101100
1100000
1101100
101011101
11011000
10111
10111000
100000100
1010
0
111
1111111111100101
1011
1001
1111111111110001
1011
100
10111
100111001
1100000011
1010010111
101000110
1000011000
1000100111
1011111110
1011101101
1001010011
1010111000
1110011001
110001111
1101100000
1100111111
111010100
1001001000
1000100100
111101010
10010010
100001
1111111111111100
11100
1111111111111111
1111
1111
1100111
1001001
11011
1001101110
10000000001
1101000100
1100110011
1110110110
10010001110
100000110110
110001111100
110001110100
111100001100
100000000101
10000100010
10110000010
11001001011
10111010011
1111111001
111000011
1000010000
1100111
1111111111110101
1111111111100110
1000
1111111111101111
1111111111111100
1111111111111110
11
11010
1001
1001110110
1111101100
10010010000
10111011000
100001100011
100111000001
100110110110
101001101100
111010010001
111101110101
101011110111
110001011001
11100000111
10010100010
1011000110
1111111110001111
1111111111101010
1111111111011001
11000011
1011001111
111111011
1110110
1111111111111101
1100
1111111111100101
101110
1011100
10101010
1010011011
10110010001
1010111101
1111111111110001
100100101
110011111
1111001010
1111001101
10100100000
1111111111001011
1100101011
10111100000
1110110001
1101001001
1100001000
10101011001
1001011000
111001100
1010001111
101011111
1110011
1111111111101110
1111111111011101
1010
1010100
1011110
10101000
1111111100011111
1111110110001110
1111111100110100
1111101100100010
1111110000010101
1110010011
1001101100
10010101001
1101101
1111101110101101
1111110101100000
1111101100011110
1111111001111010
1111111101001001
10011110111
1111111111100000
1111110100110011
1111110100000001
1110110010
1100011000
1000101110
1111111101011001
100
110
1101110
1111111110010100
1111111000110100
11100
1101011000
1111111011101101
110111101
10110000001
1111110100000000
1111110000110101
1111111001110010
11100100
1111100101100111
1111111110011101
1100101100
1111110011101110
1111111000111001
10110111111
101110000
1111110111110010
10011101011
1000000
1111111011001100
1111111110111110
1010101011
1111111111001101
1011
1111111111011001
1111111111110101
1111111010000111
1111111011001110
111101111
1111
1111111111000000
1110011
1111101110101111
1111101100000100
10000101100
1011010100
10011100000
10101001
10000000
1111110000110000
1001010110
10110000
1111111001011110
10011000000
1111101101
1011001110
1000011110
1100100101
11110
1111011100
101111101
1101111
1101
1111111111100011
1111111101111011
1111111001110100
10110100
1111110110100010
1111101011101001
110001110
1111110000110010
10110001
1111100011011010
1111101100100000
1111101011011001
1111111110010000
110101
1111110101011100
100101
1111111001001101
1111110101111111
10001000100
1111110110100011
10111101000
1111111001101011
1100010000
111010110
100001101100
1100000001
1111111100011010
1111111111101110
1111111111010000
1111111100000001
1111110110010001
1111111001001001
1111101101010111
1111101111110010
1011000111
111011
1111111010110111
1111111110101110
11001100111
1111110011100111
1111101011011101
1111110100011111
1111101111110001
1111110111110001
1000011
1111110111100011
1111110100001000
10010011000
11101011001
10100101
11001111111
10100101111
10000001110
110011111
1111111111010010
1111111111111111
1111111111001100
1111111100010111
1111110110010000
1111111011111010
100011
1111110011001110
1111110111100001
1111111010001111
1111111110100011
1111101100000100
1111110000110110
1111101010101010
100011100100
1111111011011100
1111010000000000
1111100111010110
1111001000010100
1111101001110010
1110010
10011111010
11001111
110111010
101011011110
101100110010
11000100100
11110000
1111111111001010
1111111111110101
1111111111011110
1111111110001100
11111111
1001001100
100111101101
110010110
1111100001011111
1111101110001000
1111111101010011
1111011100100001
1111101100110010
1111111111100110
1000000110
1111111111111011
1111100011110111
1111011111011110
1111101010100011
1111100010110100
1111011111110110
1111111010001000
10100100
1111111010101000
110011101111
110001010010
1001000101
1111111001101111
1111111100111110
1111111111101101
1111111111110000
1111111110001100
1010
1111110001100010
10000110111
1111111111100010
1111011010011011
1111110111001001
1111111110000110
1111101011011010
10110000001
1111111111111000
10110000101
1111011100010111
1111101101100110
1111110000001000
1111011111111111
1111100100010111
1111110000000111
1111100110000010
1111111010001111
1101000011
1000011000010
110001000100
1111111111111011
110110
10010100
1111111111101000
11000
1111111110110010
1111111011011110
1111100010011110
111111
10001110101
1111110111000000
1111110011100011
100101010
1111101101110011
1111111010000011
1111111000101000
1000101101
1111111010110010
1111101011010101
1111100010101011
1111101000100111
1111011110001100
1111100101110000
1111101111000111
1001111
1111111001111110
110000100110
11111010000
100011110
100001000
1011
1111111111101101
1111111111111101
10110
1111111000010011
1111011101110101
1111101100011101
1111110101100001
111110000
1010101100
111010101
1111111010001010
111011000
110111011
10010100011
10001111111
1111101000101011
100110
1111001111100111
1111100100101001
1111101000011011
1111110100101000
1111101110001101
1111110001010000
1011101101
11000011010
1000010011
1111111100000010
1000000
1111111111111101
1111111111111111
100000011
10101001
1111101010110010
1111100100000010
1111111011111001
1111110011010001
1111101100011011
11000111010
1000010
1001100011
1111101111101010
1001100110
1111110111001010
1111110100011000
1111101101001110
1111100001110111
1111101011110110
1111111100011111
1111110010011010
1111110001011000
1111111001100011
1111111010
100000010010
10010001100
1000100111
1111111111111110
1111
11010
101101111
1001010100
100001111
1111100001100110
1111110011001110
1111101111000100
1111111111010101
1000000000
1111101011111110
1111111110110001
1111110011000000
1111111000001000
1111110111001100
1111110010111100
1111101001110100
1001011000
1111101111100100
100100011100
1111101
110010010
10000001011
10101101110
100001110101
10000011110
110110001
101
100110
1111111111100011
11000100
1000100001
100111110
111101100
111011010
1111111010100110
1111110001111000
1101110111
100110111
1111110110100101
10001110
1111100100111111
1111110010001111
1111101101110001
101011110
1110001000
11011100111
100101001011
1000101110
1011101000
100101100110
100100001011
100000000101
1100001110
1011
1111111110011110
1111111111100011
1111111111110011
10010000
1111111011010010
1111111111100111
10100110100
11101110100
10000101
10000011101
110111100100
110001100011
101101011011
101110000011
111100000110
101000111010
100001001001
11110100111
101000010100
101010001101
110100010
101101001001
100001001111
100100011111
101100111100
11110000110
101111100
1111100
1111111111001100
1111111111101110
1111111110111101
11000101
101001000
1110011010
11110011101
100010011100
110010000000
101100111010
100100000111
100100011001
101000111011
101010101110
11010100000
100101111101
101100001111
1001011000
11100110000
10010110011
10100010111
100000001110
100101010101
1110110000
11110011100
1100001000
1101
101111
1111
1111111111110111
1111111111110011
110000011
10000000001
10100010000
11001101101
100101100100
100001001111
10010111101
1111101101101011
1111110000110101
1111110110010110
1100111100
11100011111
100010000010
101111101011
1111110100011111
100100111011
10100001110
10100000011
1111111111101110
1100001000
1111111111100001
10001011001
1111111111011011
1110
10100
1111111111111110
1010
1111111111101011
100011100
1011010101
10011101101
11011111001
1001100001
1111111110101010
1111111011101100
11000010101
1111111110101010
100110100
1011010001
11000110111
1011100001
11111101101
100011101
1110110001
1011110110
10111001110
11010100
10000100111
1111111100101101
1111110111
101100110
1010111
1111111111111100
1101
1111111111101111
1011
100011100
1010100101
10010000001
10100001111
1111110101010101
1111110101101000
10011111
11101000111
10000000101
11101011101
1010110111
1101000000
1010011000
10000100010
10111010000
10110010010
11011011000
11010100
10011010001
1101111
111111110
1100001000
10000110
10110111
11011
10010
100
1110
11100000
100001011
100010011
1111110011110011
1111111001000000
110110100
1111110011110001
1001001010
101111001
10100110001
100100110000
100000011101
100000101000
111010100
11111101011
110101010
1011100111
10000100000
1111111111110101
1111111001101010
1111111110111101
1111111101111101
1011000110
11100011
10011
1111111111111111
1111111111100011
1111111111011001
111
1111111100101100
1111110001101000
1111110101111010
10011011
1111111101001100
11111
1000100011
1101101110
1111110101101001
1111111110111100
1000101101
1111111100110101
10011101011
111111011
10000001101
11100000100
11110111011
101100
1111111000001001
1111111000000011
1111111100000001
100011100
1
11010
11001
10111
1111111111101011
1111111111011100
1101
1111111111001111
10011100
1111111100010110
1111110100100101
1111110100110011
1111110101100110
1111110001010100
1111111011010111
1001011
1111111110000010
1111101111011101
1111101000000001
1111110100010011
111001111
1010001011
10000111
1111110010100011
1111101100100010
1111110000101001
10
1111111111111011
1111111111111101
1111111111011101
1110
110
1111111111100001
11100
100011
1111111111110000
1111111111111100
1111111111111000
1111111110111111
1111111111011110
1111111111000110
1111111110100000
1111111111001100
1111111111000110
1111111101111111
1111111100011001
1111111100011100
1111111110001111
1111111110100100
1111111101001000
1111111110010011
1111111101110000
1111111110101000
1111111100110101
1111111111011000
1111111111101010
1110
1111111111110101
1111111111111100
