11101
110
1111111111110010
1111111111011010
10101
1111111111110101
1111111111110001
1111111111111011
1100
1111111111111010
10001
1111111111111100
10
0
1001
11
1
1111111111110000
1111111111101100
1111111111101001
1111111111111000
1111111111110001
1111111111110011
1111111111110101
1111111111101110
1111111111101000
0
1111111111011101
110110
10100
1111111111110101
1111111111111111
11000
1010
1001
10101
1111111111010110
1111111111110100
111
10111
1111111111000000
1111111111011101
1111111111010100
1111111111110010
10011
110110
100101
1111111111101111
1010
10000
10000
1111111111111000
1111111111100111
10
1010
1111111111111010
0
1111111111111101
1111111111111100
1111111111110011
1111111111110101
1111111111101011
111111
1011101
1111111111010000
1111111100001100
1111111011101010
1111111011000110
1111111011001000
1111111100000101
1111111111101000
101101
101001001
1010111011
10001100
1111111111001101
1111111011110001
1111111100101101
11011
10101
101
1111111111110110
1111111111110001
1000
1111111111010101
1111111111101100
1100
1111111111110110
1101
1111111111101101
1011
1111111100011001
1111110111110101
1111110110110001
1111111001111111
1111110011001111
1111111001010111
1111110011010100
1111111111111011
101011100
110110110
1111111101111111
1111111010010111
111110011
111000111
1111111101000011
1111110101010000
1111111101110100
100001000
100010
1001111
100
10
1111111111011100
1111
11000
111101
1111111101111010
1111111011100001
1111111000101000
1111110110100110
1111110100101000
1111110101010011
1111101010101000
1111110011110110
1111111001101011
1111111101010001
11111001111
100101011
1111110010000001
1111111000010011
1111111111100100
1111110000100111
1111111110010000
111100101
1000000011
10000011
1000000
1111111111001101
101
1111111111101011
1111111111111000
1111111111111110
1111111111100011
1111111110110100
1111111101101100
101110001
11000011
10011001
11100001
1010000001
1111101100011011
1111110101111000
1001111111
1001000110
10011000111
111110011
1111100110
1111111100000010
1111111001001001
1111100
1111111001111000
1011110010
100001010011
1111111101110111
1111110101001101
111101
10
1100
1111111111001111
1000
1111111111111001
11001011
1001011100
1111111101010000
1111111110011001
1000011101
100101010
110111111
110101110
1111110101001000
1111110000101011
1111110000
10000011
100011100
1111111000000100
10001010
1111101000111010
1111110001000001
1110000011
1111110111010111
111101000
11011110000
1111111100000010
1110
100
1
1111111110001001
1111111110000110
1111111111110100
1011010
10010000100
1111101011000101
1111110010011010
1111110110110110
11100011
1111110101110000
1111111000110101
11000101
10111001111
10100011101
1101100001
11011111011
10001011100
1111101001001011
100000000
100010110
1111101011011000
1111110101100101
1000101
10000000101
100011011
101100110
1111111110011000
11100
1111111111101001
1111111110100011
1111111110011110
10001010
10011
1111100100101100
1111011100101000
1111100111111110
1111111000010010
1111111110010001
1111101101110100
1000000001
101111001
10010100
110100110100
1100010110
1111110011101010
1111101101101110
1111100100101001
1100111101
1111101100101001
1111110101110010
1001100
100011101000
10010001110
1111111110110000
1111111101000101
11000
1111111111101010
1111111110010101
1111111100010100
1111111100100000
1111110011001100
1111111011111000
1111111100001100
1111111010101110
1111110111110100
1111110000011010
1111111011011011
1110111111
1111110000100110
100011111101
110111010000
1111111101011010
1111100000010100
1111111100001010
1111100011000000
1111011010100010
1111110001100101
1111101110111110
101010000
100001001100
10101011000
1000010000
101110111
1010
1111111111100001
1111111110111001
111
1111110010000111
1111110000111111
110111000
1111110001010010
1111110011110000
1111111111001000
11011110110
11010011
1010100110
10010000101
1011111010001
101011101111
1111110101000100
1111101010010110
1111011100010001
1111010010111100
1111101011110101
1111111010111001
1111100011010110
111000100
100111111001
110011101001
1111010000
10010011
10101
1011
1111111110100000
10101001
1111111100100100
1111101111100000
111010010
1111101010110011
10000110011
1111111000011011
1111111110110010
10001000100
11100010100
101001101111
110011101111
1111110100110001
1110101010100101
1111011010101111
1111100001111101
1111011001110100
1111001011000101
1111110010101010
1111100110001110
1101001
1010011010
10110010001
1001001
10101
1111111111111000
1000
1111111111100001
11101101
1011011
1111110110111011
10111111011
1001100100
10000001101
1110000110
10011100
100011111001
100100011010
100110011011
10000100
1111010001011000
1111010100101110
1111011110011011
1111110101000100
1111011001110110
1111100110010000
1111001010100001
1111010100010100
1111100010100010
1111101010011111
1111110100111110
1111111001111010
1111111111011000
100110
11001
1111111111011101
11111101
1010000000
1001110010
1011011000
10100010101
10110
100100011
11100101100
1110111110
10111100001
1111111111000101
1111100101111111
1111001101011010
1111111111100011
1111101000110111
1111101011001011
1111101010101100
1111100001010011
1111001111110001
1111010001110110
1111110011111111
1111110000000101
1111110011010111
1111111000110111
1111111101000111
10010
10100
11011
1111111110111011
111010111
11000101100
1010000010
1111111011000100
1110001100
100011111100
1111011100
10010100
1111110111110100
1111101101100000
1111001001110100
1111010100101011
1111100110001001
1111101001011101
1111011110100001
1111101001011101
1111101111111011
1111110001111001
10101010111
11111010111
10011010010
1111111001000000
1111111100111011
10011
11111
10011
1111
1111110110000001
11111110
1011101100
110101111
10001100010
11010000
1110101111
110100011
1111111111101011
1111111110011110
1111111010011000
1111011100001100
1111010111000001
1111011101110000
10001101110
100000101
1111111010010010
1111111011110001
1111110010000001
11110100001
110111000111
100011101010
1111111100111011
111100
1111111111010111
1111111111010110
1111111111111111
1111111100101100
1111110011010010
1111111101101001
100100101
1111110100010011
1111111110001110
1100111000
1111100110
10100
1111101011110011
1111101101010011
1111100101011100
1111011101101001
1111111001101100
1111011011101101
1111110001100110
1111111100011010
11010100110
100001110101
1110011100
1011011000
11101001111
10101100101
1111111010110101
1111111111010101
1111111111110000
1111111111110011
1111111111011100
1111111001000011
1111111111011111
1111111111100010
101001011
1111111111111000
1111110101110111
1000100101
111111110
1100011101
1111111111110000
1111011000100010
1111011001101110
1111101110111010
101001110
1111101011011001
10000010000
1010010010
10000000110
111110
1001110001
1011100001
1100000010
1111110101110011
1111110100011011
1111111100111001
1111111111110000
1111111111101101
100
1111111101001100
1111111101111011
111011011
111110001
1111110111
10000011110
1111111111110111
1111111101010011
100000000110
101101101
1111100111001000
1111100110111001
1111101100011001
1111110010011010
11100101111
1111110101100110
1010100110
1111110001110110
10111110010
10000010101
100100101
100100100
1111110011001011
1111111101100010
1111111110011110
111001
1111111111111100
1111111111111111
10010
1101
1001100001
10011000110
10100
1111110101011110
1111110100101000
1111110010000100
1111111001011011
10011110000
10001000101
1010000010
1000110000
111100011
1110001
1000
1100001100
101111101
11100000011
10101110000
1111111101110001
1111111101110000
1110000010
110000
1111111111010100
10001
1111111111101001
1111111111101100
1111111110000101
1111110011000111
101
10011001100
100011110
1111111101011101
11110010
10110010111
1111110010110110
11111011
1111111110
110101101
10101010001
1111101110111011
10110011111
100000011
10000000011
1111111101001011
111001011
1101001
11100011
1111111111001111
110101000
11
1111111111111001
10000
1111111111101101
1111111111111001
1111111011011111
1111110100100101
1111111111101000
1111110111101010
1111111010111111
1111111111100100
1010011000
1111110010110010
1111111111110010
1001011111
10101000101
1111110010101100
1001111110
11100010000
11001011
1111111100111110
11000101010
1111111101000111
1011111
1101000011
1111001
1111111110111001
1111110111111011
1100100
1111111111100000
0
1111111111110100
1111111111101101
1111111110100111
1111111010101000
1111101111111110
1111111010110011
1111110111111101
101101011
1111111110001111
1111110101101001
1111101111011100
1111111011101101
1001011100
110010
1111111110100111
111001000
1000011101
111100100
1110011011
1111111000100011
1111100110101010
11110101
110001000
1111111111111100
1111110101011101
1111110101100011
100
1111111111110110
1111111111101011
1011
1111111111111101
1111111111010011
1111111100100101
1111111001
1000010001
1111101001100111
1111111110110100
10001101011
10101111001
1111111011001000
1111110110011111
1111111011111011
1111011111
10100100100
10100111111
10000000101
1001010000
1111011010
110000101
1111111000000100
1111110111101110
1111110111010000
1111111001000001
1111111000001000
110000
101011
1111111111111100
10011
1111111111110010
1111111111111111
1111111011111101
1010001010
1111110011100001
1001011110
1001111101
1111001100
11001101
1111110101110110
1111101111110001
1111111101010101
1100111000
10010000100
1111111010101111
1110101111
10000001100
1011100111
10001101111
1101110001
1101111011
1111111001011101
1111111011101010
1111111101100001
1111111111101000
1011
111
10001
1111111111111000
100111
1111111111110101
1111111101011111
1111101011101111
1111110011111010
110111
1001000111
101010110
110010100
10100101
1111101110
1111111110011011
1111101111101001
1111110010001110
10000010100
1101000010
1000010
1111111101110010
101011
110111110
1101110
11011010
11
10100
101
1111111111111111
1111111111101010
100001
1111111111101111
1111111111110011
1111111110010111
1111111101000001
1111111011111111
1111111010001001
1111111100000100
11101
11101111
1000001011
1010000
1111110010000101
1111111010110111
1111110011110100
1111110010110010
1111111001000111
1111111110010001
1111111010100110
1111111010001010
111110
1111111111011011
1111111111110010
110
11010
1111111111111101
1111111111101101
0
1111111111110111
11010
111
1111111111110100
1111111111110001
1111111110110001
1111111110110101
1111111111111111
10101
1111111111010011
1111111110101101
1111111111100010
1111111011010110
1111111100101101
1111111100101101
1111111101011111
1111111101110010
1111111110111101
1
1111111111110111
1111111110111101
1111111111100001
1111111111101100
1111111111110101
10000
1111111111111010
