100
1111111111110100
0
1111111111011110
1011
10000
101
10010
100111
1111111111110000
1111111111110000
1111111111111101
1111111111110000
100
1000
1111111111111010
1111111111111100
101010
1111111111110110
1111111111110101
1111111111111101
1111111111111110
1111
100010
1111111111111111
1111111111110000
1111111111111110
10
1111111111000000
1111111111101110
1111
10111
11010
11
1111111111110010
1111111111111011
10001
11000
1111111110001011
1111111111000110
1111111110111101
1111111110101101
1111111110000111
1111111111011011
10111011
10100
10011
101011
1111111111101000
1111111111010010
1101111
11010
1111111111110100
1111111111110001
11010
100
1111111111101001
110
11011
1111111111101001
1111111111011101
10111
10
10001
1000101
11011000
1111111111011001
1111111110100101
1111111100101010
1011100
101110001
1000100110
110000
1111111001011101
1111110010111101
1111110000100001
1111111000101001
1111110110111111
1111111100111100
1111111111010101
1111111111111100
10001
1100
10111
1111111111110011
1111111111110101
1111111111110111
101101
1100
110
11100
1111000
1111111110001010
111110100
1111111011111110
101110100
110100111
110111011
1111111010110011
1111110110000111
10000101010
1111110000011001
1111100110111000
1111101000110011
1111100100101001
1111100110101001
1111110100100000
1111110110010001
1111111011001011
1111111111110111
1111111111011101
110010
100001
1111111111110011
100
1111111111110001
110
10000000
1011010
1111111100101110
1111110110110011
1111110110010100
1111111010111000
10011011
1111111000001011
1001111010
1111111011001111
1111111111110011
101001100
1111111101000101
110011101
1111110110010101
110111010
1111110100101011
1111110011110100
1111100111100100
1111110000111001
1111111101011110
1111111111010111
1111111111000100
0
100001
1111111111100011
111
11111001
101101101
1111111011100001
11010010
1111111111011011
1111111010000000
1111111010010111
11100101
1111111010001110
10000010100
1111101110011000
1001101001
1111111110110001
1111100101100100
1111110101001001
1111100110100110
1111101111001001
1111111110111111
1111111011000110
1111110111100101
1111110110000101
1111111011001000
1111111110011010
1111111111011011
10010
100
1111111101110010
1111111100001101
10001000
1111110100011101
1101010100
1010011111
10000001
1001000110
10100110110
1111101011110111
1111110000101011
110010
10110000000
1111111101011110
1111111001
1111111110111000
1010100101
100111100
1111110110110011
1111110100001110
1111110011011101
1111101111000110
1111110111001001
1111111011000111
1100000
1010011
1111111111110100
10010100
10111
1111111101010110
101100110
1111111011010000
1001001101
10001111000
110010011
101011
100111000
1111111101010010
1110000
111101011
1010111010
110010
110011
100101
1111111010011100
11001111010
1100110010
1010101101
101010
1111101101001010
1111101101011010
1111110100010110
10010110
101011
101010
10100
1111111101111111
1111111001010100
101001111
1011011010
1111101100011110
1000111101
1001100
1111111001010101
11011000111
10101100
1111110010110100
100000001
101010110010
100011011
1111101101100000
1011101001
1111110000001100
1101010100
1111111111101011
1111110101111110
1010100110
1111110010011001
1111001111010100
1111101011100111
1111111111101001
1111111111000111
1111111111110010
11100
1111111111000000
1111110000101101
1111111010011111
11100000001
1111110011111111
1111111011010010
1000010111
10001110101
10100010101
1110010101
11110101000
1111110101010000
11100101
1110010000
11011
1000011100
1111111000110101
1111101101101110
1111110011101101
1111101111111011
1100001
1111101011111101
1111011110010101
1111111101000101
1000110110
1010101100
100101
101011
1111111111100110
1111101000011111
1111110010111010
100000110
100001001
11101111010
100000100100
1100000
11110100111
1111110001000101
1111011101001011
1111011011000110
1111100101110111
1011001100
1001001000
1011000001
111111010
100110001
1111100010010010
1111110100101101
1111101001001011
1111100100101100
1111111100001101
110110101
101000110
11000100
1111111111100000
11011
1111111101000101
1111110000000100
1111110001000101
101100011
1000010101
1001111011
100100101001
1111111110110010
1111110111110101
1111101011010001
1111010100100100
1111011011010100
1111111101100101
1000000011
1111101010111101
1111111010110111
101110
1111111111100101
1111110011100111
1101
1111101100100100
1111101101011101
1111100111100011
1111110111110001
1111111011001111
1111111111111111
1111111111011000
111
1111111110011111
1111110011111110
1111110010110011
1111101110101001
1111011100001000
1111010011000001
1111010100110111
1110101010011111
1110000000101011
1110000110000111
1110111110010110
1110111011110111
1111100111010110
1111111101001011
1111110111110101
1111111101010101
1111101100111100
1111110111110011
1111110100100110
1001100
1111100000011010
1111011000110011
1111101100011101
11011110
1111111101111100
1100000
10000
1111111111110100
1010000
1111101111100101
1111011110010011
1111010000010100
1110101110000010
1101111011000101
1101101001011011
1110010000010111
1110111011000110
1111111010001101
1111111010000010
10000010010
1111110100110110
1111100100110010
1111110110000010
1111111110000000
1111110011011010
1111101011111010
11001010
1111111000001000
1111111001010010
101100110
1110011010
10100001000
1101100110
1000001110
1111111111101110
1111111111100101
111100
1111101100100111
1111011000100000
1110111010010110
1110101100110001
1110110110000110
1111011011111001
1111001101
11010101010
1111100010
100110010101
111101101
10010100
1111111101101101
1111110110011101
1111110011101100
1111111111011000
1110100100
1111111001110010
1111000001
1110111010
1111111110100111
1100111001
111111101
1010111101
1001000
1000
1111111110101111
1001000
1111101111000001
1111011011011011
1111100000001001
1111111101000100
100000001000
110010101001
11100101011
1100000011
10111001011
1111111111111000
10111001010
1111111111101100
1111011010
1111111111011001
1111111101010100
1111110001111011
1111101001000101
1111101010000000
1010001
1111111010011011
0
10011001110
10001111001
1111111011100001
100001
1111111111101010
1111111111101100
1000111
1111111001000001
1111100000111101
1111110100110010
1011010110
10110001111
10000
1011100011
111000011
10000101011
1111111100000011
11110010010
1011110101
1111110111101001
1111111000010111
100010101
1111111001101000
1001011001
110101010
11100001
11100001
11100001100
11100110100
11101101110
10001101110
1000101
1111111111101000
10111
111000
1111111111111100
1111111010001011
1001000111
1001010110
101101011
1111110101011010
1111111000010110
1111101101
100000100
11100100010
11001000110
111000101
100000010
11000001
1111111100111011
1111111000000000
1111110010101000
1111111100001000
1111110100001000
111100011
1111110001001101
1101011000
11111100101
1100101111
1011001
1111111111111011
1111111111101101
1101
1111111111111011
1000000100
10011010111
1111110110001000
10000110100
1111110110000101
1111110000000010
1000000010
110010101
1000010001
1111111111110000
10110101
1111110100110110
1111111100100001
1011101011
1100101111
1111111111100001
1111100001101110
1111110100001101
101011101
1111111110011000
10110001111
11001100110
101000110
100000111
1111111111111110
1111111111011110
1111111001110010
1111110101100000
11010100110
1111111011001001
1111111111000001
101110
1111111101110101
1100100101
11001001
1101110111
1111111101001100
100111100011
1111111110110000
1111011
1111110111011000
1111111001000000
1111101010100111
1111110111111011
10101110
111001111
11100101
11100110
1100010000
10000100110
11110111
1110011
1001
1111111110111001
1111111100101101
1101001001
11110001110
1000001011
1110111000
1100111011
11101101100
1111111111001011
1111111011000000
10000001010
10000010001
1010001111
1101011000
1111101011010110
1111111101101100
1111111000111100
1111111111101010
10000001110
1001100110
10001011
100000110
1110110111
1100010100
1001011100
10001111
1111111111110001
1111111111110010
1000
101001111
10111110101
1100100010
10011011110
100110101
11011
1111111110111110
1111111111000010
1001001010
1111110100001011
11000110
1111110100010011
1100010000
1111111001100011
1010100
1111110101010110
10010011100
1111111110100110
1111101111000111
11101101000
10001111000
10011100111
101001100
1001101100
1100101
1111111111011100
1111111111100111
1001
110000110
1101010100
11011110100
110001001100
1111111110001111
11111100
1110111001
1001111000
11100111010
1111110110100011
1111110110101001
1111110101110100
10110101111
1111110100101010
1111110100001011
1111101001101001
1011100011
1101000101
1000110110
101001100
1111111101110010
1111111101010000
100100000
101100101
110011
1111111111110110
1111111111110000
1111111111110000
1111111111100000
1111111001111110
1111111111010001
10100111101
1101010100
11001111100
1111111000001111
1001010100
1111100110010001
101000000
10101101111
1111111100111001
1111111010010100
101001100
10001100101
1111111110101001
1111000
1111111101011111
11
111101101
10111
1111111111101011
11000101
11100011
1100111
1101
1111111111110101
11
1111111110010101
1111111111010001
11100000
10111100
1111110111101110
1111110011110100
1111111001011100
100010110
1111111010100111
111010111
1111111111001000
11001101
1010110010
1111110011011001
1111100001110011
1010001010
1100000
1111111010101101
1111111101111000
110001110
1010010
1111111110100001
1001101101
110001111
1100
1000
101
1011
1111111111111100
1010000
1001010101
1111111100001110
1111111011101000
11011010
101000100
1111111001001111
1111101110000101
1111101100001101
1110101100
1111101110001101
1111111011110000
10100001001
10000100001
1111101101111001
1111011111000111
1111011110011100
1111100001101101
1111100101011111
1111110011010110
1111111010011100
1111111110101001
10
100011
1111111111110100
1
1111111111111001
1111111111101001
100010
1111111111001001
1111101100100111
1111101101011110
110010
1111111111111011
1111111001100111
1111111010011110
1111111001110110
1111110010100010
1111111000011001
11110010
101111110
1111111100111000
1111111011010100
1111111010011000
1111110111010110
1111110010111001
1111110010110111
1111111011001000
1111111111111111
10110
1111111111100111
1111111111111010
1111111111001011
1111111111111001
1111111111100000
1111111111110010
10010
1011
1111111111100011
11000
111
1110
10110
1001
100
11011
100111
11110
111101
1010111
110001
1111111111110000
11000
1111111100001001
1111111100111101
1111111011001011
1111111111101010
1111111111111100
111
101001
1111111111110010
