1000
1011
11011
1111111111110110
1011
10111
100000
0
1111111111111110
1111111111110000
11000
1111111111111110
1011
1111111111100101
1010
1
11000
10100
1111111111110001
1111
1111111111101101
1
100001
101010
1111111111111110
0
1111111111111011
1111111111101111
1111111111101010
10100
10
1000
1111111111011010
1100
1111111111100000
0
1111111111100110
1000
1111
1010100
11010011
1011100
1111111111100010
10110
100101
1111111111101110
1111111111101011
1111111111011111
1010
1111111111110001
110
1100
101
11
110
110111
1111111111111000
1011
1111111111110110
11111
1111111111111111
1101
1111111110111110
1111111110110001
1111111101010110
1111111011000010
1111111101011111
1111111111100101
1111111111100110
1111110111101000
1111111001011111
1111111101110100
1111111100110110
1111111110000100
1101
1111111111010110
1111111110011111
1111111110111111
1111111111011011
10011
110110
0
1001
10011
1111111111101011
1111111111111110
1111111111110010
11000
111
111011
1111111111000101
1111111001100110
1111111000000011
1111111101001110
1111110111110010
1111111100101010
1111111100011000
1111110110001111
1111111010100101
1111111110101110
1000100000
100010010
1111111011010101
101011011
101000101
1111110101011001
1111110110011001
1111111101010100
10101
10101
1111111111111111
1100
111
1111111111110111
1111111111100000
1111111111110001
11000
1111111111101110
1111111110001111
1111111001011100
1111111110010110
100100110
1000111001
1010111111
1111001100
10010101001
10010010
10011000
1111111001110011
1111111010111101
1111110110110111
1111110110010111
1111101110110111
1111110010000011
1111111001010100
1111111000010011
1111111100000001
1111111100101011
1111111111110001
1111111111100101
1111111111101111
1001
1111111111111000
10011
100000010
101111011
1001101101
10111101
1001110011
10010001
1101111111
110011100
1111110110000110
1111111111010101
10111101011
11011001101
1000011100
10011101
101010110
111110010
1110110
100110001
1111111100011100
1111111000111010
1111111000001011
1111111101101011
1111111111010011
10001
101001
10100
1111111111100010
1111
101001100
1010111001
1010010101
10100000
10011111101
11111010
1111111100100111
1110000
1111111011000101
1111110110111100
1111111111011101
1111111101111001
1001010110
111000111
110110010
1111110110111000
1111101100111010
10000111000
1111111100110010
1111110000110111
1111110001011110
1111110100000000
1111111101011111
1111111111110000
1001
111011
100101
11010100
111111
1000000
110110100
1111111010000101
111000
10100001110
1111111001100101
1111110010000110
1101
1111110111111111
1101000011
1111101111011000
1111111101011110
1000000100
100001
110000100
1111111000101100
1111111011110001
1111111101111111
1111111001000101
1111110011000011
1111111001100101
1111111101101000
1111111111010001
11
101010111
101000010
1111111101101010
1111111100101101
1111111101011110
1111111011000000
1111110001
100001110100
1010000000
100011110011
1011101111
101111101100
1110100011
11010010111
1001111001
1000111101
1111111011100111
100011010
1111110010000101
110001011
1111110101000001
111111010
1011110100
1111110001110011
1111101101011111
1111111000011100
1111111101101101
1001
1000000010
1001101000
1111111111000000
10
100010
101001001
1100001101
1111111000001001
110101100
11010111
10010010101
10001111001
101101101
1111111010011001
10011100
1011100110
101100000
10110110010
101001011
1111111100110100
1111111101001111
1010011110
10010000010
1111110110111000
1111110001110101
1111111011010111
100
11100
111011001
1100011111
1100011010
1000101111
1010111000
111101
1111110010011000
101110001
101101011
1111110100101000
1111101111010110
1111110011010011
10101111000
10110000010
10000111101
1001001000
10011010100
1100011001
1111110110100100
110100010
11000111110
10010011110
110111000
1111111111111001
1111110111001011
1111111110001011
1111111111101001
1111111111110001
11101111
10010011010
10100010110
1100111101
100101101
11010101
11101011
1111110101100011
10010011010
1111100
10010010111
101001010100
111001010100
10111101011
11010001100
10100000101
10101001100
101000101101
11011110001
111101001
11001010111
1110110101
111100110
10110000
1111111011001101
10100
1111111111100101
1111111111110011
1110101
1111110110
10111001
1111111011111100
1111110010010010
1111110011100000
1011010011
11001000111
10010011011
11100101001
101111110000
101110000100
1111111000111001
1111000101000101
1111110011000100
11101110100
11000101100
11010110011
1111111010010111
1111111100010111
10
1000110001
1111111001000101
1111111101001101
1111111101010100
1111111111101110
0
10000
1000
110111001
1111111110100010
1111101011100000
110101010
1111111111001111
1111111100011011
1111110001100111
1111101011101011
1111111000110010
1111101110100000
1111000101000100
1110010000101111
1111001111001000
1111010110110010
1111101101000001
1111100011111111
1111101011101110
1111100110110101
1000100
1001110111
100110
1111101111000011
1111110101101000
1100
1111111111111000
1111111111100101
1000
11
110001110
1011010101
1111100011101110
1110111000
1111111000100111
1111111000101001
11011110000
100000000
1111111100100110
1111101111101011
1111001111011101
1110111011010000
1111110011010001
1111101000010100
1111100101100011
1111100000011010
1111110111101110
1111101100110100
1111110110001111
1111110111000100
1111111000110000
1111111010001000
1111111111110010
11101101
1100
1111111111111000
1101
1111111111100000
100011101
1110001001
1111111001101101
10110000
10011111
1111110010
1111110011010001
1111101110001001
1111011111111101
1111100001111000
1111001110111011
1111001001101010
1111010011111011
1111101011011001
1111011111110000
1111110110001000
1111101001110001
1111101001001110
1111111010011111
10100011
1111111001100001
1111111101110011
1111111011
1000111111
100111000
1111111111100100
1111111111110010
1000
1111000
100110010
1010110
1111110100100110
1111111000111001
100111100
1111111000111000
1111101000110101
1111100011100000
1111010101000110
1111100101000101
1111011101111111
1111011100100010
1001111000
1111101110000101
1111110100100000
1111100111011001
1001011101
110110000
11000011000
1111110111110110
1111111010100101
1100111110
101100100
101111111
11000
1000
1111111111101111
100010
1111111010000111
1111111010111000
1010111
1111101100011011
1111100010111001
1111101100010101
1111001010111000
1111100100001111
1111111011011011
1111110101011010
1111100001010101
1111100010101101
1111101100110101
1111101010000010
1111111100000001
1111110011110000
1111110111010100
1111110110000110
1111111111111000
1111110100111111
1111110010100110
1111111110001100
101001110
1111111
100100
1111111110111101
1111111111110101
100011
1111110111000000
1111110011010010
1111111010010011
1111101011000100
1111101011111011
1111101100101011
1111111011010001
1111110010100010
1111111100101000
1111111111100001
1111100110011001
1111100100110110
1111110100101010
1111111000011001
111101111
110110111
1111111000110000
1111100111000000
1011011011
1011001101
1111111100010001
1111111011111001
1111111111011111
1111111111011111
1010
1111111111110001
100
1000101
1111111000010001
1111110100010010
1111111111100111
1101011100
100001000
1111110001100010
1111110001001010
1111101110011011
1111101101010101
1111101110001000
1111101100010110
1111100110011111
1111110010111110
1111011000100100
10001011000
1111111010010110
1111111000010001
1001101011
10010001010
1001011101
1111111000100001
1111111010011111
1111111110111111
100111
100
1111111111100110
1111111111101010
11011
100001
11010100
1110
111011111
110101001
1100001101
1111110010100111
1111110100101011
10111010101
11010001111
11001111110
1100100000
10100011101
1111101101100000
11010101
1111101001000101
1111111001011000
1111111101101011
1111111100010101
1000000001
1111111111000101
10
1111111110000001
100110
10110
101
1111111111011000
1111111110000111
1111111110111111
1111111000111010
1111111110001011
1111110110011111
1111111101011100
11000001010
10110111100
100010010110
11110100001
1100011111
11011100000
10110100010
11011001110
1000010001
1110100
1111111100111100
1111110100010001
1111111010011001
1101000110
101000011
10110000111
100111011
10010100
1111111111101010
1111111111111100
1111111111110100
1111111111111000
1111111110110011
1111111001010010
1111111001101110
1111111101111000
110101001
1101111011
1101011000
11101011101
111110111
10010110110
10100001110
10100001110
10001011001
10010001100
1110011100
11000110011
110011100
1111110101110011
10011011
1010001001
1111111111100110
100011101
11010
10110001
1111111111101000
11101
10101
0
1111111111101111
1111111011101000
1111111011000111
100101010
1110001100
1010010010
1111111001100011
11010010101
110000100
11000101011
1001001111
1111111110101010
1000100100
1001011110
10110
1100101100
10010001010
1111111110010011
1111111000110001
1111111111100001
1111110111111110
1111111001001011
1111111110010001
1011111
101
1100
1111111111111001
10001
1111111111000010
1111111111101010
1000011111
10100111101
11000101101
11010001110
110011011
1111101001111100
1111100010111111
1111110111100001
1111101011111000
1111101010110000
1111111111001100
10101100001
1100000110
10110011001
1011101111
10000010
1111111110111101
1111111111010111
1111111001011111
1111110110000011
1111111111010001
1000010
1111111111010101
0
1100
100000
10
1100111
10000100111
1110110011
100100011
1001000001
1001011101
1010001011
110101010
1101000111
11110111101
101000001
1100100100
11010001011
1011101111
111101010
10001101001
1100101000
1111110101001101
1111101110001000
1111110111111001
1111111011011111
0
1111111111101111
1111111111111001
1111111111110100
10110
10010
1111111111001100
1111111111011110
1111111101011010
1111111011011001
1111111001010100
1111111010101110
10100
101100000
101101111
110110111
1111111101101011
1111111100101000
1111110100110100
10001011011
11001001
1111111011010110
10111010
1101100111
1111111111100011
1111111011010100
1001111
1111111111011111
1111111111111010
10101
11110
0
101
11010
0
100100
10
1101
1001
1011
101110
11
110010001
1111111111010101
1111111110011110
10100001
11110
1011011
10001011
1111111111101100
1111111010001000
11110001
101011100
10011111
11001111
111010
101001
1111111111101100
1
1111111111111000
