1111101000001100
1101111101100000
10011001001111
1010111110000
11101110001
1100011110000000
1110001111111010
1110110100101010
10001011110010
10110000000011
111001111
1111111011111011
1111010001001111
11101000010
1111101110101010
1110011001111011
1110010100100000
1110100101111111
1101111010100
101101000000
