1110101101101010
100000010101
1101101010001110
11101101101
100011111001
1111000000101100
1111000101101001
1110111110010001
10001000000
1111011110001110
10100111010111
1111111111101000
10000011101111
10001011101
10000111000110
1000011100111
1001011000111
1111010001110011
1110111000011011
1101100001011000
