1111111000111110
10110101101000
1111010111010100
1111010100110101
1111111111111111
1101010110001
10000010111000
1010001011111
1101001010010011
1111000001101001
1001001100
1111011101111010
1111010111011101
1101100111011010
1101110110001100
10010100011010
1111010111100100
10101010000101
1111111010100111
1111110101000010
