1110000100111
1110000101101111
11111110011
1111000011011110
1110110000001101
10100001001010
1111111101101101
110000000100
100010011101
1111001001000010
1111001110010110
1111111001101
1111001111110000
1110101000110101
1001111101111
10011001001101
10100000110101
10000000111111
100000010
1111000010101010
