1110110111101000
10100010100
11001010101
10001110110
10010001011010
1110110001011110
1110001110110011
1110111111010010
1111100000111110
1011111100011
1110111110110111
1110010010011111
1011100110111
1110001100011001
10011001101000
11100110110101
1100110001001
1110110100100
1110111111110100
1111010011010101
