1111100111101101
1001001000001
1101111100011001
1100111100011
101010000
1110110010000010
10010010111
1111110010100111
1110001101110101
110001100000
10000011101100
1111110010100000
1111010000100011
1110111000000001
1111010011110001
111000110101
1110001001001110
1000001010000
1111011101011110
101101001101
