1100001100100
110000000001
1110100110100000
1111111101011010
1110001110110000
1111100111101000
101100100100
1000100100
1110101100100100
1101101000110
1101001101010000
1111110101011100
1111000110001001
1111110011000010
1111011001110111
1101110011011010
1100111100111000
1111000001000001
1110001111111
1010000010010
