10011111100111
1101100001100001
100000000100
1101100101101
1101111100011111
1000111110010
100101001
10011010111
1111011001101000
1111001110001010
1111101010111111
10100001011
1110110010010011
11010010010001
1010100001000
1100000001011111
1111001000000000
1101000000011100
1111001111110110
1111111110100110
