1101101000001111
10010101000111
110100010010
1110011101011001
1111101010010000
1101001011111000
10110101
1111111000
1111111000101110
1100111010011
1110001101000111
1110100111101001
10101001100
1111001110001111
1110100100000000
111000110000
1111101100001011
1111110010111001
11100101101011
101100101011
