1111000111101110
110100001011
1111001111100010
1111110111110010
1111010011000010
100011110001
1111010110100011
1010010010110
1110101100101010
1101110010011111
1011011111001
1111010001101001
10010000000111
110111010001
1000010000011
1001100010110
1110101011011
1000111010100
1111000000000011
1100100110001100
