1111000110110001
11001111111
10101001110100
1111100110010101
1101011101001001
1111111000000110
100000100
1100111001100
1111011011101101
1110111101111000
10011001
1110001000011010
1111111111011000
100010100101111
1110110100111111
1101001100111011
1001010111010
1101001100010100
10001110010
1110111000101011
